<unk>	0
<s>	0
</s>	0
</a>	0
<a>	0
</q>	0
<q>	0
|endoftext|	0
,	-3.35199
s	-3.36329
▁	-3.38288
.	-3.44104
▁the	-3.74463
▁and	-4.11554
▁to	-4.32003
▁a	-4.33996
▁of	-4.40382
:	-4.82389
▁in	-4.82973
ing	-4.84945
_	-4.96005
ed	-4.99875
-	-5.04141
'	-5.0596
d	-5.20579
(	-5.29911
)	-5.30795
t	-5.3615
▁is	-5.39215
▁""	-5.40328
▁for	-5.41101
▁with	-5.42383
▁that	-5.45397
▁you	-5.52537
▁her	-5.53132
▁=	-5.55895
▁(	-5.658
▁I	-5.69682
▁as	-5.72427
ly	-5.74602
y	-5.81143
e	-5.84598
▁on	-5.87841
▁The	-5.93402
er	-5.94558
▁it	-5.96376
▁-	-5.96469
;	-5.98362
▁be	-5.99433
n	-6.02007
▁or	-6.05211
/	-6.0876
""	-6.13592
▁his	-6.14758
▁can	-6.17701
▁your	-6.1791
al	-6.19768
▁an	-6.21138
’	-6.22423
▁<	-6.23352
▁are	-6.23812
m	-6.24297
▁was	-6.25804
▁{	-6.27801
▁this	-6.30723
r	-6.33049
▁by	-6.34214
re	-6.35473
a	-6.36026
▁from	-6.36149
▁their	-6.38228
▁A	-6.38488
i	-6.42809
▁he	-6.43086
in	-6.44244
▁she	-6.45299
o	-6.45888
▁}	-6.47645
p	-6.49019
▁will	-6.51563
▁“	-6.5277
▁not	-6.54463
g	-6.55263
S	-6.5856
▁have	-6.58969
or	-6.59679
▁if	-6.60001
c	-6.60598
?	-6.61139
I	-6.6493
▁but	-6.65067
x	-6.67366
]	-6.68519
es	-6.68903
A	-6.73459
>"	-6.74554
▁"	-6.75243
▁my	-6.76234
f	-6.76638
>	-6.78785
▁p	-6.7935
b	-6.79643
▁at	-6.79851
▁S	-6.80782
l	-6.80849
u	-6.81046
▁+	-6.84785
”	-6.84997
h	-6.86505
);	-6.86669
k	-6.88158
2	-6.88844
"",	-6.88946
▁me	-6.89302
▁more	-6.90065
▁into	-6.92328
ation	-6.92808
▁like	-6.93056
[	-6.93841
P	-6.94237
id	-6.95446
▁You	-6.96529
it	-6.96564
▁all	-6.97016
▁they	-6.98823
▁had	-6.99834
D	-7.00348
▁has	-7.01069
▁about	-7.03067
ion	-7.03893
▁do	-7.04511
on	-7.05022
▁new	-7.0573
!	-7.0576
}	-7.06034
▁B	-7.06041
▁up	-7.06824
1	-7.07162
▁In	-7.0727
ic	-7.07618
▁we	-7.0806
▁C	-7.0819
▁one	-7.09189
▁him	-7.10243
T	-7.10595
()	-7.11717
▁F	-7.1412
ur	-7.15649
▁time	-7.15695
en	-7.16066
▁use	-7.16889
le	-7.17404
M	-7.1838
▁them	-7.18504
ch	-7.19523
▁P	-7.20008
▁would	-7.20961
▁This	-7.20978
C	-7.21122
▁any	-7.21987
▁1	-7.22113
▁which	-7.22249
L	-7.22767
▁out	-7.2305
▁As	-7.23219
"":	-7.23499
▁She	-7.24067
▁so	-7.24346
an	-7.24728
▁'	-7.25716
R	-7.25917
▁D	-7.26462
ity	-7.26741
▁b	-7.27869
=	-7.28611
B	-7.28888
ve	-7.29034
.""	-7.29499
▁un	-7.29555
▁other	-7.30695
▁[	-7.30839
▁He	-7.32086
ro	-7.32494
▁It	-7.3264
able	-7.33287
w	-7.33298
ive	-7.33398
▁f	-7.33833
▁who	-7.33961
ll	-7.34795
▁#	-7.3538
▁re	-7.35836
|	-7.35983
el	-7.36025
▁should	-7.36101
th	-7.36347
im	-7.36815
▁data	-7.37062
▁how	-7.37505
3	-7.37617
▁@	-7.37895
v	-7.38401
to	-7.39836
▁t	-7.40271
is	-7.40738
il	-7.40768
F	-7.40909
ent	-7.41293
ate	-7.41729
▁through	-7.41996
▁return	-7.42486
ar	-7.43923
▁c	-7.43972
▁make	-7.44845
▁T	-7.45007
▁using	-7.45087
▁no	-7.45114
▁help	-7.45568
▁what	-7.46004
▁could	-7.46347
▁also	-7.46358
G	-7.48036
li	-7.48372
▁over	-7.48828
E	-7.48849
ment	-7.48963
▁when	-7.50367
{	-7.50422
▁de	-7.50457
▁G	-7.52254
▁//	-7.52817
▁such	-7.53392
▁only	-7.53953
▁get	-7.55542
as	-7.5606
▁some	-7.56429
▁E	-7.56628
4	-7.57098
▁0	-7.57122
▁each	-7.57357
ri	-7.575
▁were	-7.58106
▁its	-7.58553
(""	-7.58691
▁these	-7.58896
▁been	-7.59468
z	-7.60006
est	-7.60309
▁2	-7.60415
`	-7.61156
ra	-7.62922
un	-7.63495
▁model	-7.6358
▁d	-7.63688
▁M	-7.63979
at	-7.64313
O	-7.64724
Y	-7.65893
=""	-7.66064
▁*	-7.66083
st	-7.6668
▁just	-7.6674
▁eyes	-7.66946
▁W	-7.66999
ter	-7.67388
▁while	-7.67719
▁2.	-7.68039
▁there	-7.68822
▁even	-7.69322
▁If	-7.69458
▁information	-7.69647
▁```	-7.69993
\	-7.70922
age	-7.7095
▁user	-7.71049
ce	-7.71412
ry	-7.71418
▁world	-7.71887
ist	-7.72927
5	-7.7308
▁story	-7.73107
▁between	-7.73173
▁back	-7.73721
▁i	-7.73931
▁3.	-7.74272
▁H	-7.74528
ir	-7.74771
▁self	-7.74974
ers	-7.75014
ant	-7.75437
▁may	-7.75833
ness	-7.75979
▁our	-7.76232
▁content	-7.76373
ul	-7.76497
▁Re	-7.77199
et	-7.78377
H	-7.79106
...	-7.80147
ne	-7.80273
▁x	-7.80345
▁st	-7.80457
▁want	-7.81147
▁end	-7.81215
us	-7.81618
▁function	-7.81908
▁1.	-7.82084
▁way	-7.82304
▁down	-7.82499
▁need	-7.82661
).	-7.82752
▁set	-7.82821
▁`	-7.82899
▁power	-7.83122
▁R	-7.84119
▁life	-7.84269
▁AI	-7.84646
8	-7.84948
int	-7.85122
▁e	-7.85324
▁first	-7.85756
▁long	-7.86203
▁create	-7.86227
▁where	-7.86258
ad	-7.86292
<	-7.86793
▁5	-7.87718
):	-7.87834
▁4	-7.87836
ma	-7.88635
▁K	-7.88951
ance	-7.89016
▁To	-7.89744
end	-7.89866
▁before	-7.89911
%	-7.90211
▁being	-7.90479
▁know	-7.90851
um	-7.91071
▁body	-7.91116
е	-7.91179
▁name	-7.91235
▁import	-7.91518
▁character	-7.91685
▁r	-7.91976
▁language	-7.92111
te	-7.92205
▁both	-7.92874
▁V	-7.93037
▁g	-7.93295
▁int	-7.93431
get	-7.94083
0	-7.94345
▁around	-7.9454
▁never	-7.95037
▁provide	-7.9517
▁m	-7.95204
▁3	-7.95561
▁am	-7.95652
ig	-7.96396
ies	-7.96502
();	-7.96642
"")	-7.96878
▁work	-7.96981
K	-7.9721
com	-7.97415
▁well	-7.97468
ol	-7.97557
ge	-7.97611
V	-7.97642
up	-7.97851
ia	-7.98145
▁then	-7.98208
▁now	-7.98239
set	-7.9864
▁see	-7.99007
▁own	-7.99121
▁con	-7.99353
▁human	-7.99483
▁always	-8.00136
▁than	-8.00454
▁don	-8.00758
▁prompt	-8.00885
▁4.	-8.01232
▁They	-8.01487
▁find	-8.02029
▁face	-8.02197
▁let	-8.02441
▁two	-8.02737
▁My	-8.03068
▁must	-8.03225
▁different	-8.03729
▁love	-8.03805
▁10	-8.04293
am	-8.04573
*	-8.05131
,""	-8.05191
data	-8.05472
N	-8.05536
ut	-8.05715
X	-8.05718
▁class	-8.06014
de	-8.06269
la	-8.06309
▁used	-8.06424
U	-8.06715
no	-8.07391
▁most	-8.07448
▁20	-8.07529
▁public	-8.07641
▁code	-8.07796
▁For	-8.09008
▁include	-8.09321
name	-8.09513
ta	-8.09898
▁L	-8.10078
ous	-8.10294
▁We	-8.10396
line	-8.10524
▁feel	-8.10655
qu	-8.11122
▁game	-8.11672
▁man	-8.11822
▁something	-8.12001
▁after	-8.12111
▁day	-8.12179
▁N	-8.12224
ling	-8.12819
▁words	-8.12937
ip	-8.12988
▁group	-8.1314
▁every	-8.14279
о	-8.14598
▁file	-8.14606
▁And	-8.149
me	-8.15098
ting	-8.15135
▁form	-8.1545
▁within	-8.15693
▁y	-8.15867
ine	-8.16116
▁against	-8.16508
▁But	-8.16567
lo	-8.16811
▁const	-8.17051
м	-8.17056
per	-8.17178
▁start	-8.17676
▁–	-8.18213
и	-8.18436
▁write	-8.18583
1.	-8.18684
ho	-8.19049
se	-8.19137
▁high	-8.19173
▁co	-8.19893
▁|	-8.20053
▁system	-8.20352
▁h	-8.20628
W	-8.20682
▁take	-8.21238
ill	-8.21543
▁dark	-8.2162
▁following	-8.21668
▁free	-8.21729
▁O	-8.21751
ian	-8.22064
▁found	-8.22176
▁under	-8.22215
▁However	-8.22795
а	-8.22979
ful	-8.23063
ish	-8.23249
na	-8.23271
▁say	-8.23797
),	-8.23828
out	-8.23889
j	-8.25111
ating	-8.25221
▁process	-8.25249
('	-8.25267
▁show	-8.25506
▁else	-8.25723
▁example	-8.26059
▁input	-8.26156
▁people	-8.26343
▁off	-8.26586
op	-8.26675
▁text	-8.26754
▁==	-8.26984
▁&	-8.27256
▁per	-8.27319
he	-8.28125
ab	-8.2819
ci	-8.28275
ac	-8.28284
▁woman	-8.28465
co	-8.28794
less	-8.28911
▁list	-8.28976
▁add	-8.29008
▁response	-8.29041
ty	-8.29171
time	-8.29196
▁number	-8.29378
▁Her	-8.29863
▁including	-8.30105
and	-8.30107
?""	-8.30126
▁control	-8.30217
file	-8.30282
▁open	-8.30617
▁def	-8.3115
▁5.	-8.31342
vi	-8.3144
▁place	-8.31566
ver	-8.31628
▁/	-8.31667
▁feet	-8.31767
10	-8.32096
▁output	-8.3213
text	-8.32234
▁without	-8.32553
mo	-8.32679
▁With	-8.33196
))	-8.33257
▁best	-8.33763
▁part	-8.33997
▁very	-8.34184
▁k	-8.342
▁go	-8.34724
ary	-8.3489
▁19	-8.35329
▁room	-8.35375
▁support	-8.35545
The	-8.35597
be	-8.35605
ated	-8.35701
▁6	-8.35769
▁dis	-8.36034
iv	-8.36065
row	-8.36218
▁image	-8.36466
▁la	-8.36526
р	-8.36603
min	-8.36623
6	-8.36709
tic	-8.36802
▁scene	-8.37091
▁moment	-8.37189
▁keep	-8.37362
ted	-8.38129
ence	-8.38144
▁voice	-8.38182
▁play	-8.38227
mon	-8.38279
man	-8.38482
▁mind	-8.38624
▁v	-8.38777
▁experience	-8.38826
▁plan	-8.39121
pronounced	-8.39137
▁made	-8.39675
os	-8.39729
▁DAN	-8.39793
artist	-8.40057
▁right	-8.40072
▁characters	-8.40245
bo	-8.40455
key	-8.40524
▁heart	-8.40633
ized	-8.41416
▁De	-8.41572
▁message	-8.41813
▁light	-8.41867
led	-8.41869
▁anything	-8.42021
▁us	-8.42052
▁women	-8.42055
->	-8.42396
▁car	-8.42549
▁value	-8.42793
▁""<	-8.42902
▁j	-8.43054
▁making	-8.43196
You	-8.4346
▁private	-8.4367
▁young	-8.43718
▁THE	-8.43769
▁hand	-8.43878
у	-8.44046
ub	-8.45029
▁test	-8.45157
‘	-8.45314
lu	-8.45572
▁pre	-8.45784
Data	-8.45884
ens	-8.45926
ee	-8.46021
do	-8.4634
▁7	-8.46342
the	-8.46361
ical	-8.46876
ha	-8.4696
ial	-8.47129
20	-8.4729
9	-8.47447
hi	-8.47612
tion	-8.47835
▁sense	-8.47847
▁social	-8.47881
':	-8.47985
▁during	-8.48233
In	-8.48411
ear	-8.48429
▁here	-8.48512
▁head	-8.48563
▁generate	-8.48571
▁print	-8.48588
ism	-8.48636
▁still	-8.49038
▁specific	-8.49088
▁J	-8.49155
▁unique	-8.49377
ap	-8.50443
▁w	-8.50729
н	-8.50926
”)	-8.51406
url	-8.51708
▁short	-8.52048
port	-8.52242
▁state	-8.52415
▁true	-8.52463
▁8	-8.52536
lic	-8.52736
ities	-8.52909
Write	-8.53018
▁might	-8.53049
add	-8.53294
▁answer	-8.53427
▁focus	-8.53524
▁often	-8.53648
▁various	-8.5384
的	-8.53888
')	-8.53937
7	-8.5398
q	-8.54101
▁those	-8.54195
Id	-8.5458
▁hair	-8.54587
act	-8.546
▁Mo	-8.54636
tor	-8.5497
+	-8.55102
▁Be	-8.55197
▁give	-8.55286
Text	-8.55597
▁key	-8.55611
▁Con	-8.55692
ff	-8.55979
▁sp	-8.5599
der	-8.5599
▁tell	-8.55991
▁So	-8.56072
▁much	-8.56267
://	-8.56526
▁style	-8.56592
▁act	-8.56914
ot	-8.57016
▁too	-8.57487
▁call	-8.57489
▁come	-8.57587
▁</	-8.57659
ie	-8.5772
▁=>	-8.57776
▁n	-8.57898
old	-8.57907
▁line	-8.57918
▁app	-8.58311
▁continue	-8.58409
▁detailed	-8.58738
AN	-8.59101
▁pro	-8.59143
con	-8.59227
che	-8.5952
ы	-8.59584
▁small	-8.59638
ect	-8.59735
▁air	-8.59872
▁Mode	-8.59873
▁role	-8.59921
▁does	-8.60034
▁di	-8.60147
с	-8.6023
▁Ma	-8.60244
po	-8.60352
▁second	-8.60377
▁order	-8.6038
▁Do	-8.60746
▁care	-8.60925
ake	-8.61009
▁project	-8.61104
"">	-8.61211
if	-8.61345
ice	-8.61513
tr	-8.61533
▁night	-8.61643
▁real	-8.61734
▁GPT	-8.61826
ca	-8.62171
vo	-8.62287
ions	-8.62318
▁args	-8.62347
▁personal	-8.62367
one	-8.62415
▁ChatGPT	-8.62468
▁good	-8.62611
▁sexual	-8.62745
▁next	-8.62864
▁What	-8.62941
▁15	-8.62947
size	-8.62994
Value	-8.63034
io	-8.63528
▁access	-8.63672
▁>	-8.63674
▁based	-8.63684
▁herself	-8.63904
red	-8.63981
▁break	-8.64371
▁var	-8.64799
ring	-8.65208
▁0;	-8.65223
▁art	-8.65354
▁breath	-8.65358
▁change	-8.65402
▁full	-8.65907
mb	-8.66293
pt	-8.66323
em	-8.66395
ast	-8.66663
^	-8.66781
▁many	-8.66805
▁System	-8.66859
▁think	-8.67375
▁size	-8.67379
▁12	-8.67605
ative	-8.6783
ple	-8.68098
::	-8.68223
▁en	-8.68227
▁position	-8.68298
▁local	-8.68317
▁same	-8.68362
ize	-8.68595
▁•	-8.68679
▁cl	-8.68723
ite	-8.68941
ni	-8.68982
▁meaning	-8.6923
▁team	-8.69293
les	-8.69422
▁l	-8.69516
To	-8.69709
▁sure	-8.69765
▁follow	-8.69765
▁felt	-8.69821
king	-8.70026
AR	-8.70042
div	-8.70157
▁result	-8.70365
▁together	-8.70522
>""	-8.70605
▁6.	-8.7088
▁ensure	-8.70969
—	-8.71027
▁case	-8.71173
▁word	-8.71439
▁potential	-8.71489
▁9	-8.715
value	-8.7202
</	-8.7203
▁void	-8.72051
▁research	-8.7211
▁pleasure	-8.7248
▁knew	-8.72552
▁present	-8.72611
ure	-8.72646
write	-8.7276
▁strong	-8.72762
б	-8.72965
▁development	-8.73109
ak	-8.73342
▁going	-8.7345
cent	-8.73477
▁question	-8.73491
▁point	-8.73557
▁himself	-8.73573
▁Me	-8.73752
sh	-8.74033
▁better	-8.7404
▁secret	-8.74085
▁because	-8.74134
}{	-8.74183
▁away	-8.74321
pa	-8.74409
▁said	-8.74435
▁deep	-8.74485
ain	-8.74632
go	-8.74765
▁0,	-8.74793
ue	-8.75068
▁No	-8.75085
ber	-8.75143
▁ex	-8.75242
▁another	-8.75466
▁color	-8.75495
▁little	-8.75866
ow	-8.75909
dy	-8.75942
ki	-8.761
▁view	-8.76145
▁couldn	-8.7625
▁feeling	-8.76301
▁again	-8.76309
▁kind	-8.7648
▁error	-8.76494
log	-8.76645
▁design	-8.76783
▁Use	-8.76783
J	-8.76948
▁current	-8.76954
py	-8.77161
▁main	-8.77219
▁Com	-8.7732
▁St	-8.77482
ack	-8.7752
ex	-8.77558
т	-8.77587
▁upon	-8.77606
gen	-8.77811
cy	-8.77865
▁understand	-8.7802
》	-8.7839
▁sound	-8.78529
▁try	-8.7861
▁Patricia	-8.7865
all	-8.78717
▁consider	-8.7875
image	-8.78751
▁person	-8.78843
ations	-8.78844
▁child	-8.79181
▁stories	-8.79371
▁task	-8.79472
br	-8.79519
▁11	-8.79535
▁request	-8.79558
▁sun	-8.79622
▁An	-8.79836
к	-8.79964
ang	-8.80005
▁knowledge	-8.80029
ning	-8.80092
▁left	-8.80141
""]	-8.80485
ph	-8.80758
▁understanding	-8.8095
▁sub	-8.81182
▁writing	-8.81197
▁Un	-8.81224
▁water	-8.81515
ka	-8.81589
▁city	-8.81814
▁post	-8.81915
ven	-8.81936
▁detail	-8.82002
▁non	-8.82138
av	-8.82153
▁turn	-8.82165
app	-8.82182
▁close	-8.82217
like	-8.82327
▁command	-8.82453
test	-8.82473
[""	-8.82679
▁format	-8.82762
▁\	-8.82803
▁null	-8.82806
ious	-8.82909
self	-8.82941
▁Co	-8.83194
oo	-8.83591
▁problem	-8.83679
▁once	-8.83697
▁search	-8.83749
▁X	-8.83756
str	-8.83803
press	-8.8383
00	-8.83948
▁become	-8.84008
ran	-8.84149
▁great	-8.8415
ru	-8.84156
▁Ro	-8.84354
▁further	-8.84574
ke	-8.84641
ization	-8.84663
▁How	-8.84703
ose	-8.84741
▁did	-8.85193
▁began	-8.85371
ally	-8.85381
our	-8.85467
▁$	-8.85531
▁touch	-8.85683
▁Here	-8.85686
Re	-8.85769
ned	-8.85985
▁known	-8.86012
va	-8.86071
▁hard	-8.86125
▁range	-8.86337
"");	-8.86467
▁By	-8.86536
string	-8.86874
ide	-8.86922
▁NOT	-8.87008
side	-8.87123
▁narrative	-8.87554
OR	-8.87769
▁str	-8.87775
▁smile	-8.87893
▁These	-8.87943
▁perspective	-8.87948
new	-8.88045
▁given	-8.88114
▁past	-8.88196
▁object	-8.88342
▁above	-8.88344
2.	-8.88352
。	-8.88442
mi	-8.88462
▁learn	-8.88595
▁towards	-8.88607
▁train	-8.88654
▁physical	-8.88739
▁display	-8.88946
▁look	-8.89232
count	-8.8945
ST	-8.89618
▁sh	-8.89654
tra	-8.89698
▁type	-8.89858
▁possible	-8.89996
▁red	-8.9001
▁environment	-8.90169
ries	-8.90217
▁Developer	-8.90243
▁force	-8.90378
ile	-8.9039
▁dialogue	-8.90399
ga	-8.9043
1,	-8.90437
▁important	-8.90458
▁values	-8.90588
▁Z	-8.90591
▁height	-8.90676
з	-8.9068
▁Your	-8.90705
gg	-8.90745
19	-8.90838
Item	-8.90894
uck	-8.91035
ever	-8.91079
cl	-8.91234
▁symbol	-8.91239
▁hold	-8.91307
▁black	-8.91318
▁things	-8.9133
^2	-8.91351
list	-8.91394
▁called	-8.914
bi	-8.91475
▁13	-8.91533
▁large	-8.91558
▁home	-8.91602
▁soft	-8.91609
▁media	-8.91794
▁16	-8.91936
▁thought	-8.92076
▁Add	-8.92222
ze	-8.92441
rank	-8.92463
▁table	-8.92528
▁believe	-8.92795
▁nature	-8.92869
▁program	-8.93033
rs	-8.93037
▁Now	-8.9341
ny	-8.936
di	-8.93783
▁family	-8.93847
ick	-8.93859
!""	-8.93932
▁complete	-8.9394
▁ever	-8.94203
▁last	-8.9421
▁check	-8.9432
type	-8.94323
ev	-8.94399
▁His	-8.94419
▁7.	-8.94499
ng	-8.94575
▁green	-8.94714
▁col	-8.94762
▁skills	-8.94837
As	-8.94978
message	-8.95128
▁due	-8.95239
pe	-8.95292
ID	-8.95302
aw	-8.95411
▁respond	-8.9543
Image	-8.95521
▁One	-8.95966
ash	-8.95996
▁player	-8.96018
ten	-8.96025
▁ask	-8.96078
▁music	-8.96149
▁powerful	-8.9622
RE	-8.96314
▁travel	-8.96345
▁structure	-8.96468
▁learning	-8.967
gree	-8.96712
ag	-8.96776
low	-8.96778
▁14	-8.96857
au	-8.9689
▁situation	-8.96897
▁When	-8.96982
▁se	-8.97005
▁o	-8.97432
▁approach	-8.97513
д	-8.97639
▁cannot	-8.97643
▁U	-8.97745
ign	-8.97766
▁min	-8.97768
▁behind	-8.97826
▁string	-8.97844
л	-8.97878
$	-8.97895
▁version	-8.97905
▁Man	-8.97979
▁Li	-8.98025
ok	-8.98058
ator	-8.98118
ا	-8.98131
▁friends	-8.98136
▁matter	-8.98149
▁impact	-8.98221
▁Se	-8.9844
▁few	-8.98492
[]	-8.9873
Z	-8.98932
▁pain	-8.98989
▁purpose	-8.99014
▁method	-8.99225
cr	-8.99348
▁side	-8.99411
▁Y	-8.99486
▁17	-8.9952
we	-8.99629
ctx	-8.99676
▁script	-8.99689
▁similar	-8.99708
▁mo	-8.9972
▁beautiful	-8.99781
▁25	-8.99783
read	-8.99851
pp	-8.99882
▁perfect	-9.00037
Name	-9.00053
▁events	-9.0008
▁until	-9.00091
mer	-9.00179
lit	-9.00302
▁18	-9.00331
AL	-9.00394
Type	-9.00411
.”	-9.00444
▁put	-9.00458
▁lead	-9.00487
я	-9.00517
▁connection	-9.00611
▁market	-9.00677
▁strength	-9.00791
ner	-9.00817
▁sc	-9.00885
▁ma	-9.00939
for	-9.00963
▁named	-9.00992
ON	-9.0107
▁across	-9.01112
▁improve	-9.01113
ual	-9.01152
▁years	-9.01273
ard	-9.0128
ра	-9.01446
da	-9.01554
parent	-9.01583
ay	-9.01606
▁cost	-9.01657
▁questions	-9.0166
of	-9.01694
▁growth	-9.01742
train	-9.01862
&	-9.0197
▁Le	-9.02026
▁move	-9.0209
fi	-9.02105
art	-9.02294
px	-9.02373
▁AIM	-9.02538
▁hands	-9.02539
▁trying	-9.02553
▁analysis	-9.026
▁background	-9.026
▁gra	-9.02603
hy	-9.02662
,”	-9.02773
▁druids	-9.02796
▁After	-9.02798
mp	-9.02959
▁future	-9.02993
▁Write	-9.03006
▁desire	-9.03012
▁three	-9.03327
▁OpenAI	-9.03388
▁got	-9.0345
▁Please	-9.03468
ai	-9.03497
▁comp	-9.03621
['	-9.03646
▁actions	-9.03722
ship	-9.03766
▁ch	-9.03847
bu	-9.03881
▁below	-9.03983
▁fun	-9.04004
▁significant	-9.04057
▁Mar	-9.04156
ability	-9.04174
▁blue	-9.04312
code	-9.0434
**	-9.04424
▁handle	-9.04501
▁application	-9.0451
▁able	-9.04778
▁context	-9.04894
ep	-9.05393
▁wide	-9.05402
input	-9.055
▁star	-9.05503
ound	-9.05556
▁performance	-9.05601
wa	-9.05629
▁yourself	-9.05638
▁address	-9.05689
▁management	-9.05741
▁inter	-9.05785
▁Pro	-9.05866
ping	-9.05904
▁company	-9.05983
enc	-9.06113
espite	-9.06125
▁Lo	-9.06125
▁really	-9.06168
▁path	-9.06347
eg	-9.06455
pos	-9.06484
▁ho	-9.06492
▁skin	-9.06521
▁level	-9.06536
▁At	-9.06598
▁100	-9.06968
▁old	-9.07043
▁fear	-9.07089
▁taking	-9.07139
▁Sa	-9.07142
title	-9.07218
ward	-9.07251
▁yet	-9.07281
0,	-9.07328
ging	-9.07357
rate	-9.07426
12	-9.07466
▁La	-9.07475
];	-9.07483
▁behavior	-9.07615
▁inside	-9.07689
pi	-9.07774
▁website	-9.07799
▁represent	-9.07843
att	-9.07975
▁explore	-9.08028
head	-9.08055
▁step	-9.0807
▁course	-9.08124
▁creating	-9.08165
rap	-9.08313
ify	-9.08434
▁provided	-9.08468
▁em	-9.08508
▁novel	-9.08512
▁Di	-9.08521
▁и	-9.08596
▁guide	-9.08599
▁Ad	-9.08648
']	-9.08651
▁enter	-9.0874
▁quality	-9.08809
arch	-9.08838
mit	-9.0886
▁com	-9.08865
▁far	-9.08921
html	-9.08926
▁instructions	-9.08989
Title	-9.09003
▁risk	-9.09007
15	-9.09058
cu	-9.09067
▁study	-9.09135
spec	-9.09175
▁avoid	-9.09207
ute	-9.09334
ou	-9.09348
▁space	-9.09595
((	-9.09633
lt	-9.09706
▁female	-9.09763
▁rest	-9.09824
▁%	-9.09839
▁random	-9.09858
▁tags	-9.0991
gu	-9.09953
▁leave	-9.10044
▁steps	-9.10137
land	-9.10169
date	-9.10325
▁influence	-9.10325
▁today	-9.10413
▁initial	-9.10539
▁page	-9.10626
▁Can	-9.10712
▁door	-9.10759
▁legs	-9.10763
ib	-9.10764
▁su	-9.10926
▁essential	-9.11032
mm	-9.1105
cos	-9.1114
ER	-9.11267
▁figure	-9.1153
width	-9.11532
▁interest	-9.11594
hu	-9.11642
istic	-9.11805
▁remember	-9.11816
▁dance	-9.11969
▁previous	-9.12141
▁All	-9.12145
▁Stephen	-9.12176
ster	-9.12201
25	-9.12212
ris	-9.12224
é	-9.12317
▁bring	-9.12338
▁plot	-9.12344
#	-9.1258
▁setting	-9.12981
IN	-9.13274
ification	-9.13342
▁multiple	-9.13484
LE	-9.13599
▁filled	-9.13785
▁ethical	-9.13824
▁conversation	-9.13838
tro	-9.13846
▁complex	-9.13967
ah	-9.13985
▁low	-9.14084
ise	-9.14124
▁30	-9.14157
▁population	-9.14165
▁run	-9.14264
ace	-9.14388
ble	-9.14442
▁book	-9.14572
[0]	-9.14601
Q	-9.14663
▁responses	-9.14666
use	-9.14796
▁players	-9.14822
16	-9.14851
▁nothing	-9.1499
▁0)	-9.15085
α	-9.15086
ath	-9.15141
ger	-9.15145
▁lips	-9.15242
@	-9.15307
▁policies	-9.15308
▁с	-9.15328
▁experiences	-9.15341
▁li	-9.1539
let	-9.15512
▁cover	-9.15589
3.	-9.15812
▁health	-9.15824
▁suggest	-9.15843
▁business	-9.15845
▁ability	-9.15855
phi	-9.15931
den	-9.16091
▁Ra	-9.16097
over	-9.16195
▁save	-9.16274
ition	-9.16298
▁enjoy	-9.16317
▁along	-9.16323
▁target	-9.16506
▁general	-9.1658
ock	-9.16618
light	-9.1689
ec	-9.16893
▁Create	-9.16983
▁beauty	-9.17101
▁Ar	-9.17156
ade	-9.17173
50	-9.17176
▁girl	-9.1725
▁movement	-9.17356
▁individual	-9.17369
String	-9.17424
▁product	-9.17496
▁1:	-9.17593
python	-9.1763
▁means	-9.17674
▁imp	-9.17739
▁stop	-9.17746
card	-9.17797
az	-9.17826
ible	-9.17841
ool	-9.17863
▁DO	-9.17878
▁series	-9.17954
ler	-9.18002
▁Ex	-9.18097
▁action	-9.18344
lar	-9.18374
lin	-9.18467
play	-9.18497
▁thoughts	-9.1851
▁quickly	-9.18527
ther	-9.18653
▁history	-9.18799
view	-9.18844
son	-9.18888
length	-9.18956
▁memory	-9.18988
▁seemed	-9.19014
▁bit	-9.19085
form	-9.19196
pan	-9.19334
▁least	-9.19399
▁du	-9.19443
▁On	-9.1947
▁--	-9.19618
▁concept	-9.19621
▁training	-9.19636
path	-9.19648
▁culture	-9.19736
▁serve	-9.19796
-1	-9.19888
▁enabled	-9.20044
▁journey	-9.20086
tu	-9.20125
▁simple	-9.20165
▁safe	-9.20179
frame	-9.2024
▁8.	-9.20254
▁pass	-9.20279
ase	-9.20314
▁technology	-9.20319
▁total	-9.20374
▁everything	-9.20476
df	-9.20644
Work	-9.20662
▁certain	-9.20865
80	-9.20866
way	-9.2091
▁field	-9.20988
gar	-9.21059
11	-9.21066
ach	-9.21076
▁cause	-9.21185
▁Lady	-9.21199
izing	-9.21215
sur	-9.21365
▁film	-9.21416
val	-9.21434
cc	-9.21478
▁maintain	-9.215
load	-9.21526
by	-9.21546
amp	-9.21551
▁needs	-9.21563
▁rank	-9.21567
▁having	-9.2167
▁enough	-9.219
▁read	-9.21925
▁<<	-9.22018
▁hope	-9.22098
▁‘	-9.22102
▁engage	-9.22126
▁в	-9.22131
What	-9.22133
++)	-9.22191
▁subject	-9.22215
▁standard	-9.22217
2)	-9.22294
▁Ch	-9.22296
▁Pa	-9.22344
▁direct	-9.2254
▁organization	-9.22602
],	-9.22638
fla	-9.22642
▁doesn	-9.22659
▁Agent	-9.22864
▁reader	-9.23063
▁chest	-9.23239
▁There	-9.23265
Add	-9.2341
▁begin	-9.23414
▁sign	-9.23421
][	-9.23511
▁cultural	-9.23523
▁grow	-9.23622
----------------	-9.23649
▁someone	-9.23744
())	-9.23765
ч	-9.23887
par	-9.2398
▁Mi	-9.24017
▁While	-9.24128
й	-9.24199
▁protect	-9.24275
▁continued	-9.24308
my	-9.24332
▁Al	-9.24396
chan	-9.24433
ING	-9.24475
▁count	-9.24581
day	-9.24703
▁talk	-9.24729
▁fact	-9.24792
ments	-9.24837
air	-9.24851
"";	-9.24908
▁professional	-9.24939
▁clear	-9.2494
▁results	-9.25037
map	-9.25089
▁challenges	-9.25101
▁explicit	-9.25103
▁several	-9.25185
▁struggle	-9.25348
cing	-9.25379
▁individuals	-9.25385
▁guess	-9.2544
ire	-9.25441
rim	-9.25484
▁video	-9.25555
▁explain	-9.25594
▁giving	-9.25841
▁pov	-9.25893
▁since	-9.26033
▁job	-9.26102
▁stand	-9.2616
uc	-9.26199
ight	-9.26225
EN	-9.26309
▁sample	-9.26347
are	-9.26453
item	-9.26508
Error	-9.26511
▁match	-9.2652
▁week	-9.26684
ст	-9.26718
г	-9.26747
▁document	-9.26793
▁agent	-9.26879
▁attention	-9.26915
▁event	-9.26928
▁date	-9.26968
layout	-9.26991
▁necessary	-9.26999
ele	-9.27042
▁running	-9.27102
▁please	-9.27214
λ	-9.27332
▁issues	-9.27431
pro	-9.27555
style	-9.27599
▁won	-9.27609
can	-9.2769
▁why	-9.27694
▁Caroline	-9.27751
ral	-9.27891
▁marketing	-9.27937
▁final	-9.28022
und	-9.28113
▁big	-9.28154
▁!=	-9.28262
▁others	-9.28422
▁details	-9.28565
▁shape	-9.28568
▁sex	-9.28583
▁&&	-9.28626
▁wrong	-9.28683
▁describe	-9.29113
top	-9.29185
ture	-9.29219
user	-9.29247
Key	-9.29317
▁school	-9.29613
▁50	-9.29661
▁energy	-9.29784
▁experiment	-9.29784
▁platform	-9.29955
rect	-9.29981
▁curse	-9.30054
▁house	-9.30159
▁width	-9.30298
▁weak	-9.30457
▁share	-9.30461
30	-9.30461
▁account	-9.30475
▁progress	-9.30475
▁foot	-9.30548
bb	-9.3059
▁though	-9.30609
▁fall	-9.30632
▁res	-9.30707
])	-9.30717
▁ready	-9.30729
work	-9.30778
));	-9.30823
▁top	-9.30893
▁appear	-9.30907
▁tall	-9.30922
ton	-9.31022
board	-9.31042
▁moral	-9.31057
▁desires	-9.31113
▁systems	-9.31138
ш	-9.31163
▁card	-9.31182
▁reaction	-9.3121
▁Let	-9.31212
▁window	-9.31263
п	-9.31325
▁ball	-9.3136
▁took	-9.31361
▁dec	-9.31384
▁implement	-9.31389
iz	-9.31428
▁String	-9.31439
▁push	-9.31464
▁equation	-9.31598
▁didn	-9.31726
ient	-9.3175
▁instead	-9.31772
Button	-9.31775
ular	-9.31874
▁discuss	-9.3188
serv	-9.31943
▁term	-9.31966
▁ground	-9.32067
▁single	-9.32131
▁button	-9.32179
▁false	-9.3218
▁dream	-9.32209
▁ha	-9.32271
▁food	-9.32319
▁limit	-9.32322
▁among	-9.32599
▁looking	-9.32629
▁country	-9.32699
▁database	-9.32816
▁created	-9.32817
bar	-9.32894
ier	-9.32902
▁achieve	-9.33001
nd	-9.33042
▁el	-9.33077
▁working	-9.3313
▁lost	-9.33143
▁build	-9.33176
gi	-9.33208
core	-9.33238
▁battle	-9.33267
▁year	-9.33355
▁Bliss	-9.33356
ail	-9.33391
▁tight	-9.33525
point	-9.33645
fe	-9.33684
▁mu	-9.33707
▁YOU	-9.33789
dr	-9.33819
▁takes	-9.33831
ort	-9.33903
]:	-9.3392
={	-9.34065
▁already	-9.34068
ky	-9.34145
▁breasts	-9.34295
▁attempt	-9.34337
▁amount	-9.34407
▁machine	-9.34426
mor	-9.34515
tri	-9.34631
▁reason	-9.34698
AC	-9.34767
agent	-9.34827
▁global	-9.34875
▁1,	-9.34884
▁Reza	-9.34904
▁especially	-9.34965
▁max	-9.34969
right	-9.34979
▁vi	-9.35029
wi	-9.35082
▁El	-9.35156
sign	-9.35209
▁stay	-9.35217
button	-9.35324
▁elements	-9.35342
▁friend	-9.35359
▁tasks	-9.35384
▁network	-9.35507
▁install	-9.35509
back	-9.35548
64	-9.35568
start	-9.35662
Line	-9.35663
то	-9.35683
▁John	-9.35689
но	-9.35786
▁seen	-9.35841
▁report	-9.35855
▁sa	-9.35862
json	-9.35868
▁tools	-9.35935
▁1)	-9.35961
▁offer	-9.36013
▁Math	-9.36017
Size	-9.36098
▁needed	-9.36161
▁transform	-9.36218
▁society	-9.36235
▁affect	-9.36236
eat	-9.36243
Command	-9.36329
▁political	-9.36417
▁hero	-9.3644
▁row	-9.36544
media	-9.36584
▁load	-9.36658
~	-9.36782
▁forward	-9.36837
oh	-9.36882
▁9.	-9.3689
▁ver	-9.36917
▁Some	-9.36957
▁brand	-9.3697
▁quite	-9.36993
▁Sp	-9.37053
▁Val	-9.37055
▁positive	-9.3706
ef	-9.37077
token	-9.37088
▁conflict	-9.37152
▁strategies	-9.37336
▁mean	-9.37412
▁white	-9.37419
▁natural	-9.37428
ump	-9.3746
▁fight	-9.37462
index	-9.37481
▁gaze	-9.37535
▁required	-9.3758
gl	-9.37626
username	-9.37773
▁online	-9.37798
▁AND	-9.37806
run	-9.37842
▁pair	-9.37844
her	-9.37961
List	-9.37961
▁sensation	-9.37985
▁started	-9.38058
place	-9.38109
▁android	-9.38112
▁idea	-9.3813
▁+=	-9.3816
Source	-9.38172
▁suit	-9.38205
▁laugh	-9.38237
▁patient	-9.38357
▁skill	-9.38432
▁special	-9.38451
task	-9.38452
▁communication	-9.38543
▁IN	-9.38678
▁weight	-9.38699
{}	-9.38775
ric	-9.3896
▁land	-9.39015
▁normal	-9.39189
▁engaging	-9.39199
▁shall	-9.392
listeners	-9.39221
▁Tr	-9.39272
▁ticklish	-9.39293
▁std	-9.39359
▁effective	-9.39405
▁replace	-9.3948
▁changes	-9.39531
▁store	-9.39566
▁hidden	-9.39576
▁Ana	-9.39594
▁factors	-9.3964
▁guidelines	-9.39677
tail	-9.39678
▁girls	-9.39737
ude	-9.40037
pack	-9.4007
▁warm	-9.40097
▁selected	-9.40112
ba	-9.40201
ess	-9.4031
▁shared	-9.40361
▁symbols	-9.40467
▁bound	-9.40496
ret	-9.40499
rem	-9.40583
▁features	-9.40677
▁That	-9.40688
▁products	-9.40691
▁themselves	-9.40811
в	-9.40876
ED	-9.4091
▁wall	-9.40966
State	-9.41039
ery	-9.41203
▁government	-9.4121
label	-9.41258
▁gain	-9.41281
▁reply	-9.41282
Object	-9.4129
net	-9.41369
▁Get	-9.4146
ct	-9.41494
De	-9.4156
win	-9.41634
▁update	-9.41636
DE	-9.41677
▁happen	-9.41684
▁done	-9.41727
▁accept	-9.41771
▁по	-9.4193
▁https	-9.41974
▁sn	-9.41996
▁mis	-9.42083
bl	-9.42185
gan	-9.42221
ov	-9.42228
▁al	-9.42238
lan	-9.42364
▁common	-9.42437
struct	-9.42446
oth	-9.42544
▁engine	-9.42546
▁wearing	-9.42611
bin	-9.42667
▁Ja	-9.42737
du	-9.42783
han	-9.42802
▁resources	-9.42827
▁assist	-9.42829
90	-9.42864
▁period	-9.42936
▁chat	-9.42979
orn	-9.43004
▁Ca	-9.43378
▁service	-9.43625
▁center	-9.43747
18	-9.43798
main	-9.43877
▁attack	-9.43918
▁predict	-9.43935
▁laughter	-9.44065
(\	-9.44091
box	-9.44099
▁building	-9.44104
▁balance	-9.44114
}}	-9.44159
content	-9.4422
▁students	-9.44304
▁appropriate	-9.44311
▁intricate	-9.44311
table	-9.44394
▁critical	-9.44423
▁becomes	-9.44449
▁double	-9.44489
▁pull	-9.4454
▁itself	-9.44595
bit	-9.44612
13	-9.44627
▁wonder	-9.44634
▁playing	-9.44707
▁neck	-9.44833
▁List	-9.44842
▁2:	-9.44985
▁speed	-9.45013
▁prefix	-9.45306
▁En	-9.45351
▁Set	-9.4551
▁adapt	-9.45608
https	-9.45631
har	-9.45656
го	-9.4581
▁reveal	-9.45836
▁unit	-9.45865
▁que	-9.45951
▁fire	-9.46012
▁completely	-9.46045
▁expression	-9.46078
model	-9.46145
▁Bo	-9.46146
▁mark	-9.46162
▁difficult	-9.46209
SE	-9.46291
User	-9.46362
▁[]	-9.46369
▁embrace	-9.46399
▁wh	-9.46435
%,	-9.46438
▁float	-9.46443
▁length	-9.46474
ana	-9.46554
Ex	-9.46566
▁diaper	-9.46623
▁outside	-9.46767
▁techniques	-9.4678
▁challenge	-9.46784
▁24	-9.46784
▁original	-9.46796
▁contain	-9.46825
command	-9.47016
ron	-9.47017
▁bond	-9.47025
ome	-9.47138
▁consumer	-9.47164
▁log	-9.47168
cal	-9.47169
▁vampire	-9.47223
▁restrictions	-9.473
▁Just	-9.47305
Select	-9.4735
ole	-9.47472
▁array	-9.47472
▁wave	-9.47567
▁finally	-9.47611
part	-9.47657
▁ret	-9.47666
ли	-9.47806
▁File	-9.47837
70	-9.47912
ja	-9.47918
gr	-9.47947
Show	-9.47951
▁leading	-9.47962
▁asked	-9.48004
▁rate	-9.48071
Table	-9.4813
▁days	-9.48183
ature	-9.48348
▁master	-9.48375
append	-9.48377
▁identity	-9.48558
batch	-9.48675
▁points	-9.48729
د	-9.48763
▁demand	-9.48765
▁digital	-9.48765
▁Ha	-9.48789
▁source	-9.48792
▁topic	-9.48819
▁children	-9.48919
▁ways	-9.48925
▁10.	-9.4899
▁sleep	-9.48992
▁author	-9.49004
▁};	-9.49032
▁success	-9.49041
▁adventure	-9.49058
▁22	-9.49076
▁magical	-9.49112
▁edge	-9.49128
▁block	-9.49261
ction	-9.49262
ree	-9.49328
▁join	-9.49507
▁inform	-9.49534
▁met	-9.49578
angle	-9.49612
verse	-9.49624
▁dare	-9.49713
not	-9.49723
▁price	-9.49846
▁movie	-9.49909
ane	-9.49913
▁fe	-9.49921
▁services	-9.49935
▁safety	-9.49944
▁df	-9.49983
word	-9.50086
View	-9.50099
▁Po	-9.50108
▁third	-9.50118
▁hunt	-9.50121
▁lot	-9.50192
${	-9.5021
Hello	-9.50342
▁reach	-9.50385
▁auto	-9.50451
▁party	-9.50453
▁choice	-9.5047
▁200	-9.50481
▁slowly	-9.50483
▁Qu	-9.50601
▁strange	-9.50636
▁letter	-9.50651
▁column	-9.50683
▁tried	-9.50702
▁leaving	-9.50751
TH	-9.50802
▁2023	-9.50847
cer	-9.5088
▁increase	-9.50944
▁came	-9.50952
ر	-9.5096
▁English	-9.5096
▁adjust	-9.50963
body	-9.51043
▁adult	-9.51066
ong	-9.51077
▁description	-9.51101
eck	-9.51141
▁looks	-9.51237
▁considered	-9.51283
▁Ri	-9.51348
37	-9.51359
▁library	-9.51384
▁Finally	-9.51384
ES	-9.51404
▁bar	-9.51406
▁client	-9.51411
▁personality	-9.51448
▁elf	-9.51452
ко	-9.51481
▁men	-9.51496
▁на	-9.51531
round	-9.51597
°	-9.51702
rum	-9.51714
▁anyone	-9.51786
▁review	-9.518
▁tri	-9.51846
▁soul	-9.52012
▁emotions	-9.52023
3)	-9.52068
▁accident	-9.52115
▁analyze	-9.5213
56	-9.52177
▁Lu	-9.52182
▁23	-9.5222
▁living	-9.52346
▁turned	-9.52416
▁21	-9.52482
▁boy	-9.52488
▁conditions	-9.52544
que	-9.52618
▁th	-9.52653
▁looked	-9.52655
▁mother	-9.52706
▁algorithm	-9.52882
ft	-9.52958
▁delicate	-9.5299
▁correct	-9.53001
ung	-9.53089
▁illegal	-9.53098
▁appearance	-9.53145
▁activities	-9.53206
▁operation	-9.53206
▁cell	-9.53233
▁Go	-9.53239
▁front	-9.5325
sheet	-9.53277
▁throughout	-9.53318
▁goal	-9.53452
▁relationship	-9.53461
▁legal	-9.53467
▁times	-9.53471
ugh	-9.53502
▁From	-9.53504
▁security	-9.53552
rc	-9.53662
▁allows	-9.53686
▁abilities	-9.53748
height	-9.538
ulation	-9.53855
▁four	-9.53949
▁less	-9.54017
▁Dr	-9.54067
Time	-9.54078
script	-9.54217
ix	-9.54218
lot	-9.5423
▁location	-9.54289
▁??	-9.54311
▁allow	-9.54455
ina	-9.54464
(2	-9.54533
miss	-9.54562
▁options	-9.54573
42	-9.546
ology	-9.54614
reg	-9.54638
▁fill	-9.54689
▁link	-9.54693
▁became	-9.54732
roll	-9.54757
▁cat	-9.54862
▁area	-9.54866
▁available	-9.54952
▁providing	-9.54952
▁z	-9.55114
▁Start	-9.55115
▁seductive	-9.55172
▁charm	-9.55191
▁designed	-9.55215
num	-9.55287
-3	-9.55333
▁temperature	-9.55393
▁instance	-9.55396
▁clean	-9.55396
▁track	-9.55397
▁...	-9.55435
Of	-9.55494
▁wild	-9.55506
cur	-9.55593
www	-9.55614
▁suffix	-9.55614
▁doing	-9.55643
▁encounter	-9.55725
55	-9.55803
▁remind	-9.55842
wo	-9.55849
color	-9.55879
▁spread	-9.55981
▁wait	-9.56062
▁World	-9.56073
▁emotional	-9.56281
▁visual	-9.56282
▁First	-9.56327
▁hum	-9.56337
▁war	-9.56542
▁getting	-9.56641
24	-9.56645
▁town	-9.56647
▁deal	-9.56649
▁Ho	-9.56677
ø	-9.56728
▁customer	-9.56738
▁40	-9.56809
▁send	-9.56875
▁mix	-9.56883
▁thing	-9.56892
▁cast	-9.56898
▁submission	-9.56953
▁paper	-9.56957
▁God	-9.5696
▁possess	-9.56972
tory	-9.57056
▁particularly	-9.57066
▁frame	-9.57066
▁images	-9.57068
mod	-9.57135
▁sin	-9.57139
▁perform	-9.57188
▁male	-9.57204
ya	-9.57242
▁TO	-9.57246
▁grin	-9.57283
Int	-9.57338
14	-9.57356
▁exp	-9.57371
init	-9.57411
▁overall	-9.57417
▁fast	-9.57436
01	-9.57513
▁respect	-9.57565
▁relevant	-9.57629
ified	-9.57646
▁signal	-9.57697
▁box	-9.5773
We	-9.57743
off	-9.57757
60	-9.57795
uch	-9.5781
▁num	-9.57835
▁Th	-9.57844
▁conclusion	-9.57855
▁sweet	-9.57861
chi	-9.5791
▁High	-9.57934
▁2)	-9.57942
▁disc	-9.58005
▁reference	-9.58074
▁audience	-9.58082
dge	-9.58121
▁methods	-9.58152
Layout	-9.58196
▁sw	-9.58281
▁catch	-9.58312
▁hours	-9.58379
▁naked	-9.58424
▁monster	-9.58425
down	-9.58426
graph	-9.5843
▁trust	-9.58485
▁West	-9.5849
dia	-9.58495
position	-9.58519
For	-9.58589
▁Part	-9.58609
▁Yosemite	-9.58652
-4	-9.58659
▁highly	-9.5869
nal	-9.5873
▁require	-9.58733
▁chapter	-9.5888
▁damage	-9.58881
▁Make	-9.59054
▁presence	-9.59112
▁tree	-9.5914
▁death	-9.592
▁terms	-9.59226
▁shadows	-9.59296
▁industry	-9.59339
▁tokens	-9.59374
▁corner	-9.5958
this	-9.59583
▁entire	-9.59599
▁Dis	-9.59703
▁server	-9.59791
▁reduce	-9.59809
af	-9.59862
node	-9.59971
▁provides	-9.60047
';	-9.60089
▁live	-9.60211
ister	-9.60256
max	-9.60399
▁combination	-9.60496
▁shift	-9.60715
م	-9.60729
lower	-9.60771
▁fingers	-9.60811
▁cross	-9.60847
pre	-9.60894
▁decision	-9.60915
▁visit	-9.60963
AM	-9.61032
ination	-9.612
▁increasing	-9.61314
▁release	-9.61314
Click	-9.61326
▁dress	-9.61346
▁difference	-9.61437
▁onto	-9.61523
▁pants	-9.61526
exp	-9.6157
▁trend	-9.61575
47	-9.61687
ably	-9.61772
gon	-9.61805
night	-9.61809
▁stage	-9.61845
▁employ	-9.61879
▁wr	-9.61889
▁web	-9.6192
stream	-9.61977
▁App	-9.62029
▁longer	-9.62096
▁opportunity	-9.62138
================	-9.62139
▁Ne	-9.62179
▁closer	-9.62187
men	-9.62234
▁apply	-9.62246
▁Additionally	-9.62257
ray	-9.62269
len	-9.62492
▁Meaning	-9.62495
vol	-9.62589
Row	-9.62646
theta	-9.627
▁truth	-9.62732
book	-9.62775
▁darkness	-9.62788
▁lack	-9.62799
cle	-9.62845
▁flow	-9.62982
sta	-9.63034
▁base	-9.63056
▁early	-9.63242
▁(1	-9.63282
▁rather	-9.63331
meta	-9.63365
org	-9.63393
▁Don	-9.63414
▁gentle	-9.63449
ю	-9.635
ва	-9.63534
ped	-9.63536
32	-9.6356
▁claim	-9.63595
▁efficient	-9.63646
ik	-9.63687
▁acts	-9.6369
▁excitement	-9.63808
▁fix	-9.63892
ET	-9.63971
Con	-9.63982
NE	-9.63986
▁lower	-9.63988
▁np	-9.64036
db	-9.64131
▁written	-9.6417
▁ob	-9.64194
▁resist	-9.6426
▁label	-9.64283
▁whispered	-9.64289
▁trans	-9.64318
▁note	-9.64331
var	-9.64477
lib	-9.64502
▁dynamic	-9.64532
ject	-9.64546
ж	-9.64546
▁Sha	-9.64685
▁comes	-9.64697
arg	-9.64779
UR	-9.64824
▁Data	-9.64861
ney	-9.64877
ending	-9.6488
▁cold	-9.64914
▁eye	-9.64921
pl	-9.64941
▁Their	-9.64941
▁everyone	-9.65103
▁partner	-9.65192
▁education	-9.65262
lock	-9.65303
▁issue	-9.65307
、	-9.65331
▁identify	-9.65384
▁mouth	-9.65384
▁protagonist	-9.65506
▁beneath	-9.65506
44	-9.65555
▁sharp	-9.65642
▁solution	-9.65676
те	-9.6574
δ	-9.65751
▁seems	-9.65755
loc	-9.65803
▁Python	-9.6585
▁μ	-9.65993
▁static	-9.66
▁Each	-9.66082
create	-9.66087
▁practices	-9.66088
و	-9.6612
▁universe	-9.6612
first	-9.66215
▁title	-9.66253
▁para	-9.66299
▁condition	-9.66384
▁-1	-9.6639
Color	-9.66509
matic	-9.66559
▁win	-9.6656
fer	-9.66594
▁weapon	-9.66613
▁lo	-9.6664
▁importance	-9.66706
▁bed	-9.66729
▁argument	-9.66737
▁soon	-9.66742
▁meet	-9.66754
Task	-9.66805
▁truly	-9.66861
ties	-9.66891
▁—	-9.66898
some	-9.67046
▁except	-9.67295
▁rec	-9.67299
move	-9.6735
Position	-9.6736
ronounced	-9.67383
AD	-9.67392
▁mode	-9.67422
lab	-9.67443
▁hit	-9.67448
67	-9.67459
Card	-9.67474
tive	-9.67478
Message	-9.67485
Content	-9.67497
▁principles	-9.67596
timestamp	-9.67609
▁framework	-9.67618
▁blood	-9.67733
▁screen	-9.67761
▁multi	-9.67769
▁invent	-9.67792
Index	-9.67825
util	-9.67904
');	-9.67916
▁Mysterik	-9.67983
▁mysterious	-9.67983
▁mine	-9.68228
▁await	-9.68236
AT	-9.68248
▁Rank	-9.6838
▁highlight	-9.68406
▁id	-9.68441
40	-9.6845
▁diapers	-9.68476
channel	-9.68487
filter	-9.68532
UI	-9.68543
▁accurate	-9.68612
▁held	-9.68629
link	-9.68681
▁escape	-9.68753
Get	-9.68783
▁erotic	-9.68865
▁scenario	-9.68991
▁opinions	-9.68997
▁region	-9.69004
▁New	-9.69007
▁reflect	-9.69069
▁fo	-9.69193
each	-9.69223
▁choose	-9.69254
array	-9.69268
iff	-9.69328
▁Once	-9.69355
▁primary	-9.69372
▁Hertig	-9.69373
ui	-9.69408
▁===	-9.69419
▁0.0	-9.69453
▁eventually	-9.69499
▁super	-9.69551
▁passionate	-9.69555
▁exist	-9.69579
kin	-9.69605
▁thighs	-9.69629
▁popular	-9.69632
ender	-9.69633
▁Quran	-9.69645
acc	-9.69728
Chapter	-9.69756
▁almost	-9.69762
▁allowing	-9.69771
mate	-9.69776
delete	-9.69789
Tag	-9.69866
▁valid	-9.69867
▁cards	-9.69995
IC	-9.70021
▁crucial	-9.70138
▁<-	-9.70171
▁none	-9.70219
▁char	-9.70255
ی	-9.70266
TE	-9.7027
▁develop	-9.70288
▁prevent	-9.70396
AI	-9.70402
▁mentioned	-9.70506
▁community	-9.7078
▁medical	-9.70786
▁sight	-9.70883
ка	-9.70917
▁slow	-9.70921
▁bus	-9.70986
▁decided	-9.71032
▁urge	-9.71052
▁DNA	-9.71072
▁round	-9.71081
▁3:	-9.71112
▁forever	-9.71145
▁});	-9.71193
ask	-9.71212
RO	-9.7122
▁finding	-9.71275
の	-9.71348
▁section	-9.7135
▁taken	-9.7135
van	-9.71375
▁lives	-9.71402
▁landscape	-9.7143
▁sea	-9.71526
▁enhance	-9.71535
rr	-9.7154
▁grip	-9.71558
▁park	-9.71575
▁weather	-9.71685
▁None	-9.71715
CO	-9.71749
▁additional	-9.71902
▁goes	-9.71963
▁fan	-9.72015
▁Then	-9.72125
▁floor	-9.72171
▁offers	-9.72198
▁genomic	-9.72209
▁stood	-9.7221
tle	-9.72276
▁injuries	-9.7234
▁effect	-9.72376
▁near	-9.72404
='	-9.72405
oke	-9.72467
▁transformation	-9.72509
▁forest	-9.72536
17	-9.72632
fully	-9.72666
▁leg	-9.72685
IO	-9.72858
▁regular	-9.72866
▁modern	-9.72866
▁saw	-9.7295
ل	-9.72997
▁United	-9.73008
gue	-9.73049
▁Remember	-9.73094
Do	-9.73098
▁clothes	-9.73129
▁pos	-9.73157
▁went	-9.73242
state	-9.73254
▁walk	-9.73261
▁margin	-9.73261
▁promote	-9.73261
▁heat	-9.73315
▁treatment	-9.73337
EroticaChan	-9.73393
Mon	-9.7344
nic	-9.73685
▁assume	-9.73818
▁score	-9.73838
▁da	-9.73846
▁realized	-9.73874
▁vehicle	-9.73924
▁consciousness	-9.73925
2021	-9.73941
65	-9.74025
It	-9.74068
▁->	-9.74081
▁requests	-9.7414
▁collect	-9.74196
▁Ren	-9.74215
za	-9.74224
Mo	-9.74264
▁minutes	-9.74325
ов	-9.74354
75	-9.74355
▁censor	-9.74446
aving	-9.7448
▁growing	-9.74554
▁smooth	-9.74592
▁filter	-9.74596
▁pet	-9.74598
▁parameters	-9.74682
Context	-9.74717
Ma	-9.74747
▁cut	-9.74819
ley	-9.7483
▁brown	-9.74861
▁material	-9.74868
Update	-9.74988
[1]	-9.75034
▁sky	-9.75041
▁Jack	-9.75051
▁matrix	-9.75099
▁tea	-9.75111
ه	-9.75129
▁thinking	-9.75149
▁refer	-9.75252
hen	-9.75318
▁article	-9.7532
▁loss	-9.7532
▁draw	-9.75327
▁equal	-9.75367
▁Matthew	-9.75534
▁whisper	-9.75536
▁basic	-9.75576
ext	-9.75628
▁regard	-9.75645
eek	-9.75659
▁Marcel	-9.7567
▁density	-9.7567
lor	-9.75686
▁effects	-9.75701
▁Output	-9.75709
Count	-9.75718
Code	-9.75741
ı	-9.75805
lie	-9.75877
ough	-9.75921
(“	-9.75941
Read	-9.75957
▁passion	-9.75988
Height	-9.75989
▁heard	-9.76007
print	-9.76049
▁spot	-9.76122
ological	-9.7614
prop	-9.76174
DO	-9.76193
▁asks	-9.7622
▁utiliz	-9.76256
▁magic	-9.76317
ت	-9.76348
▁fantasy	-9.76348
▁desperate	-9.76349
▁creative	-9.76349
Your	-9.76351
Power	-9.7637
action	-9.76407
▁chance	-9.76444
0)	-9.76556
▁User	-9.76584
based	-9.76605
▁whether	-9.76622
59	-9.76778
▁begins	-9.76801
An	-9.76834
lay	-9.76919
▁index	-9.76943
▁sum	-9.77012
Pro	-9.77046
▁race	-9.77092
▁Name	-9.77175
▁Task	-9.7724
▁bad	-9.77293
▁users	-9.77368
Set	-9.77422
▁console	-9.77447
+1	-9.77454
▁alone	-9.77504
({	-9.77509
▁commands	-9.77512
▁fur	-9.77517
▁policy	-9.77583
fa	-9.77606
▁gives	-9.77629
▁East	-9.77661
▁theory	-9.7778
▁determine	-9.778
▁reality	-9.77808
>"",	-9.7784
▁||	-9.77853
96	-9.77854
1)	-9.77854
▁evidence	-9.77859
▁contact	-9.7786
▁War	-9.7788
▁fully	-9.77942
Event	-9.77975
▁surprise	-9.77998
▁distance	-9.77999
=1	-9.7807
▁manage	-9.78073
▁contribute	-9.7809
ark	-9.78139
▁len	-9.78215
▁API	-9.78258
pixel	-9.78277
realistic	-9.78279
IS	-9.78394
▁ba	-9.78427
▁prop	-9.78447
pot	-9.78468
mark	-9.78563
▁Jon	-9.78605
▁relationships	-9.78649
49	-9.78747
▁whole	-9.7879
▁JSON	-9.78833
qua	-9.7894
ike	-9.78955
▁animal	-9.78978
▁item	-9.78997
▁Na	-9.79019
▁files	-9.79062
,000	-9.79065
▁ultimately	-9.79068
▁thrill	-9.79113
▁rain	-9.79214
46	-9.79243
▁ensur	-9.79253
)),	-9.79314
▁led	-9.79317
▁economic	-9.79317
rust	-9.79405
▁hear	-9.79446
(0,	-9.79448
een	-9.79577
include	-9.7968
23	-9.79707
source	-9.79824
▁rules	-9.80014
▁exc	-9.80018
▁leader	-9.80181
object	-9.80233
▁confirm	-9.80254
Cards	-9.80261
rd	-9.8032
▁vector	-9.80361
▁bright	-9.80422
IM	-9.80444
ari	-9.80452
ically	-9.8046
txt	-9.8047
▁scale	-9.80481
AS	-9.80485
▁projects	-9.80489
select	-9.80496
▁ideas	-9.80517
▁twisted	-9.80527
▁programming	-9.80528
▁layer	-9.80538
▁wear	-9.80592
temp	-9.80831
loh	-9.80902
▁Anneliese	-9.80952
▁desired	-9.80995
icon	-9.81073
▁negative	-9.81095
▁Cyril	-9.81095
Box	-9.81119
▁rear	-9.81152
power	-9.81158
▁28	-9.81186
▁calculate	-9.81238
▁fellow	-9.81245
▁IS	-9.81369
▁happy	-9.81381
▁higher	-9.81397
▁gender	-9.8143
▁fit	-9.81467
▁wind	-9.81494
▁recent	-9.81515
▁Su	-9.81544
criticism	-9.81567
mag	-9.81635
▁Thank	-9.81657
▁advantage	-9.81668
NT	-9.8168
take	-9.81728
▁Per	-9.81768
▁surrounding	-9.81812
▁beyond	-9.81812
▁limited	-9.81911
▁et	-9.81941
▁60	-9.82009
▁immediately	-9.8202
▁custom	-9.8203
open	-9.82059
▁pressure	-9.82102
▁requirements	-9.82115
guard	-9.82182
▁literary	-9.82245
▁narrator	-9.82245
000	-9.82276
▁items	-9.8228
▁Min	-9.82525
▁exploring	-9.82535
▁Every	-9.82536
European	-9.82554
info	-9.82555
▁submit	-9.82566
ko	-9.82643
tan	-9.82656
rain	-9.82722
js	-9.82778
26	-9.82785
5)	-9.82946
▁seek	-9.82951
▁Over	-9.8298
де	-9.82991
bur	-9.83037
▁offering	-9.83076
AB	-9.83104
В	-9.83116
▁allowed	-9.8314
▁Image	-9.83262
▁gasp	-9.83322
▁sit	-9.83441
suit	-9.8345
68	-9.83451
▁playful	-9.83549
▁bodies	-9.83555
ь	-9.83598
▁related	-9.8362
ith	-9.83692
▁speech	-9.83702
▁sorry	-9.83745
grad	-9.83771
▁mid	-9.83783
48	-9.83791
▁anticipation	-9.83848
▁curve	-9.83853
wise	-9.83858
▁types	-9.83904
ن	-9.83983
▁actually	-9.83989
▁eager	-9.83997
▁convert	-9.84
split	-9.841
▁INT	-9.84103
▁Load	-9.84104
img	-9.84116
▁stream	-9.842
▁default	-9.84217
NO	-9.84261
▁mass	-9.84271
CE	-9.8428
▁Western	-9.84291
hr	-9.84343
▁kill	-9.84446
▁thread	-9.84489
|}	-9.84497
▁late	-9.84571
▁Bu	-9.84664
▁materials	-9.84698
Hi	-9.84736
▁RE	-9.84741
▁site	-9.84758
▁active	-9.84817
▁select	-9.84855
Co	-9.8487
)*	-9.84979
▁mental	-9.8503
▁intense	-9.85033
▁traditional	-9.85052
plan	-9.85198
▁games	-9.85254
Label	-9.85309
My	-9.85367
▁opportunities	-9.85478
▁belief	-9.85628
▁hot	-9.85697
▁equipment	-9.85777
▁preferences	-9.85779
une	-9.85816
▁Joyce	-9.85822
fee	-9.85864
▁areas	-9.8594
▁literature	-9.86077
craft	-9.86086
ident	-9.86115
ем	-9.86193
▁spa	-9.86221
Vector	-9.8623
▁__	-9.86271
▁decisions	-9.86289
31	-9.86296
▁treat	-9.86332
▁works	-9.86346
Com	-9.86425
▁expected	-9.86453
hal	-9.86459
6)	-9.86527
▁confident	-9.86529
во	-9.86575
▁Ka	-9.8667
39	-9.86737
▁contains	-9.86792
▁slightly	-9.86832
▁echo	-9.86835
No	-9.8687
▁graphic	-9.86878
ura	-9.86882
▁rich	-9.86909
▁Card	-9.86939
▁Not	-9.86957
▁Sh	-9.86959
▁accuracy	-9.87027
▁listen	-9.87067
を	-9.87077
▁hospital	-9.87135
▁lay	-9.87272
ب	-9.87287
▁Angela	-9.8733
▁arm	-9.87337
▁speak	-9.87355
▁depend	-9.87394
▁interesting	-9.87423
imagine	-9.8744
If	-9.87479
raise	-9.87532
▁internal	-9.8761
▁mortals	-9.8762
Player	-9.87746
This	-9.87763
ле	-9.87954
▁define	-9.88014
▁dear	-9.88022
▁ju	-9.88025
println	-9.88052
▁software	-9.88061
ode	-9.88119
▁described	-9.88119
▁addition	-9.88157
▁likely	-9.88183
▁roll	-9.88226
▁pay	-9.88235
OO	-9.88282
▁promise	-9.88358
▁proper	-9.88399
used	-9.88418
▁wish	-9.88651
▁causing	-9.88665
▁express	-9.8871
▁27	-9.88759
mut	-9.88774
▁variable	-9.88779
中	-9.88805
▁arms	-9.88887
▁BE	-9.88907
▁alteration	-9.8892
▁fine	-9.88927
On	-9.88936
Why	-9.8895
Enter	-9.88956
room	-9.8896
ц	-9.88974
им	-9.88996
▁font	-9.89002
▁advice	-9.89129
▁Blue	-9.89132
▁cool	-9.89158
Max	-9.89216
▁ubuntu	-9.89269
▁node	-9.89306
▁beginning	-9.89318
▁wit	-9.89403
SH	-9.8943
▁Vi	-9.89437
▁sort	-9.89453
EE	-9.89588
▁footslave	-9.89595
▁easy	-9.89596
▁whose	-9.89642
delay	-9.89721
▁harm	-9.89816
▁parts	-9.89881
▁mar	-9.89902
aging	-9.89916
▁simply	-9.90063
▁druid	-9.90063
▁taste	-9.90091
Cell	-9.9013
CH	-9.90136
▁option	-9.90162
▁customers	-9.90225
▁poop	-9.90226
▁email	-9.90267
▁summary	-9.90299
▁village	-9.90376
epoch	-9.90379
▁drop	-9.90473
99	-9.90475
▁themes	-9.90483
▁occur	-9.90514
ρ	-9.90531
▁US	-9.90565
▁dangerous	-9.9072
22	-9.90791
▁seeking	-9.90869
▁buy	-9.90877
▁gu	-9.90878
06	-9.9099
wee	-9.91014
fect	-9.91082
▁Include	-9.91163
27	-9.91171
▁temp	-9.91173
▁bottom	-9.91175
▁sat	-9.91186
▁practice	-9.91205
▁nu	-9.91297
▁tool	-9.91309
43	-9.91321
▁quiet	-9.91358
kah	-9.91413
66	-9.91431
PL	-9.91446
del	-9.91477
▁Jo	-9.91485
▁comprehensive	-9.91639
57	-9.91665
()}	-9.9167
▁production	-9.91691
▁render	-9.91697
▁knowing	-9.91721
▁explanation	-9.91798
▁av	-9.91798
▁tension	-9.91799
ль	-9.91811
current	-9.91825
▁shock	-9.91828
strict	-9.91877
Log	-9.91904
▁click	-9.9191
▁particular	-9.91956
▁assistance	-9.92018
▁atmosphere	-9.92116
▁psychological	-9.92116
▁Therefore	-9.92116
▁wicked	-9.92117
от	-9.92136
86	-9.92145
▁fictional	-9.92173
direct	-9.92183
▁members	-9.92253
在	-9.92253
GPT	-9.92263
▁challenging	-9.92276
▁financial	-9.92276
▁newfound	-9.92276
▁Pre	-9.92301
lag	-9.92344
▁inner	-9.92374
api	-9.92388
rus	-9.92415
▁Christian	-9.92436
▁extend	-9.92453
flush	-9.92471
Number	-9.92597
Model	-9.92599
java	-9.92617
ara	-9.92637
▁ancient	-9.92758
▁diverse	-9.92786
▁Car	-9.92794
▁effectively	-9.92822
▁connect	-9.92834
(0)	-9.92836
pression	-9.92837
▁Dan	-9.929
300	-9.92902
▁spirit	-9.92905
space	-9.92906
▁ref	-9.92914
▁solve	-9.92929
▁artists	-9.92974
▁comments	-9.92976
▁levels	-9.93066
▁trip	-9.93072
well	-9.93073
▁linear	-9.93075
500	-9.93081
▁fate	-9.93097
emp	-9.93105
▁feelings	-9.93142
▁remain	-9.93142
▁mask	-9.93147
▁Introduction	-9.93185
LL	-9.9321
▁Je	-9.93212
▁patterns	-9.93238
х	-9.93301
▁season	-9.93419
Input	-9.9353
▁Or	-9.93559
▁morning	-9.93565
Link	-9.93594
():	-9.93694
EX	-9.93719
▁element	-9.93863
▁produce	-9.93888
▁either	-9.93888
▁Pr	-9.93893
▁wearer	-9.93904
dict	-9.93909
Lil	-9.93971
▁exploration	-9.9405
да	-9.94064
Oh	-9.94068
char	-9.942
vision	-9.94206
▁environmental	-9.94213
▁Florence	-9.94213
▁proud	-9.94216
▁package	-9.94216
–	-9.94281
▁danger	-9.94348
ен	-9.94368
▁actual	-9.94436
reasoning	-9.94486
▁seat	-9.94488
VE	-9.94552
param	-9.94601
▁caught	-9.94703
▁cruel	-9.94704
▁German	-9.94704
itch	-9.94711
▁detect	-9.94732
▁solutions	-9.94749
▁realm	-9.9479
▁laws	-9.94793
▁26	-9.94801
▁Q	-9.94816
▁greater	-9.94823
▁indicate	-9.94868
▁countries	-9.94897
arr	-9.94917
▁constantly	-9.94985
▁teeth	-9.95033
для	-9.95039
lat	-9.95103
Bar	-9.95172
▁comm	-9.95204
▁myself	-9.95224
??	-9.95233
▁scar	-9.95251
04	-9.95286
▁rel	-9.95302
▁easily	-9.95361
▁35	-9.95383
▁watch	-9.9539
▁Cat	-9.95471
▁establish	-9.95511
google	-9.95525
ü	-9.95564
cycle	-9.95577
▁computer	-9.95603
pla	-9.95605
0.1	-9.95685
▁hobgoblin	-9.95691
section	-9.9575
bot	-9.9582
▁strategy	-9.95857
config	-9.95858
Change	-9.9587
▁seem	-9.95955
▁external	-9.96023
▁extra	-9.9604
▁record	-9.96041
LY	-9.96054
▁variables	-9.96066
▁val	-9.96129
Can	-9.96137
▁noise	-9.96159
lam	-9.9621
▁increased	-9.96214
ily	-9.96242
Parameters	-9.96398
▁notice	-9.96404
?”	-9.96415
▁meeting	-9.96416
▁hide	-9.96454
▁Te	-9.96521
▁Gr	-9.96535
▁cap	-9.9666
▁clothing	-9.96689
▁attend	-9.96702
▁map	-9.96757
aunt	-9.9677
和	-9.96835
▁Google	-9.97023
▁sequence	-9.97045
▁Alex	-9.97065
▁bear	-9.97072
▁goals	-9.97179
▁successfully	-9.97181
μ	-9.97188
▁piece	-9.97191
▁interactions	-9.97233
▁painting	-9.97278
ä	-9.9736
born	-9.97386
hand	-9.9744
▁introduce	-9.97528
▁dragon	-9.97563
▁align	-9.97574
88	-9.97668
bold	-9.97679
▁rule	-9.97699
▁existing	-9.9772
base	-9.97769
▁rep	-9.97789
losses	-9.97795
▁receive	-9.97828
term	-9.97836
OC	-9.97855
▁capacity	-9.97865
▁unethical	-9.97865
▁guy	-9.97876
Char	-9.97879
35	-9.97986
▁elegant	-9.98034
arm	-9.98044
▁gear	-9.98054
▁Young	-9.9815
cut	-9.98151
▁objective	-9.98232
▁successful	-9.98267
▁aspects	-9.98274
84	-9.98274
▁ratio	-9.98278
wood	-9.98304
US	-9.98346
▁FOLLOW	-9.98404
metric	-9.98695
game	-9.98713
▁violent	-9.98714
▁interact	-9.98754
▁submissive	-9.98763
pol	-9.98824
▁cor	-9.98842
▁creature	-9.98863
Ignore	-9.98885
col	-9.98917
▁joke	-9.98918
▁managed	-9.99046
next	-9.99128
▁concern	-9.99218
▁alternative	-9.99227
▁sensual	-9.99227
▁excited	-9.99228
TO	-9.99256
▁loop	-9.99276
class	-9.99307
parameter	-9.99348
(1)	-9.99377
▁brought	-9.99398
▁international	-9.99398
Edit	-9.99421
▁wasn	-9.99507
θ	-9.9957
▁daily	-9.99579
());	-9.99581
cast	-9.99694
▁Winry	-9.99743
07	-9.99802
100	-9.99867
▁morality	-9.99882
▁Hello	-9.99893
▁>=	-9.99899
▁heavy	-9.99916
▁student	-9.99927
▁cm	-9.99951
strip	-9.99983
▁End	-9.99988
▁settings	-10
TA	-10.0015
▁implementation	-10.0016
▁invest	-10.0016
▁Check	-10.0019
▁bot	-10.0025
year	-10.0025
63	-10.0032
▁processes	-10.0034
second	-10.0038
Find	-10.0039
▁months	-10.004
▁devices	-10.0041
数	-10.0041
▁Conclusion	-10.0043
▁consequences	-10.0043
mu	-10.0046
post	-10.0049
▁nn	-10.0051
OL	-10.0056
▁advanced	-10.0058
▁fox	-10.0061
▁coming	-10.0065
▁torment	-10.0065
UT	-10.0072
∂	-10.0073
File	-10.0074
Calendar	-10.0078
▁Step	-10.0082
▁Oh	-10.0087
Control	-10.0097
ulate	-10.0099
▁remains	-10.0101
▁phone	-10.0102
high	-10.0113
▁Empire	-10.0113
▁Keep	-10.0113
▁session	-10.0114
на	-10.0117
▁reached	-10.012
factor	-10.013
▁essay	-10.0131
▁drive	-10.0132
lah	-10.0139
Frame	-10.0144
▁Hunter	-10.0148
▁studies	-10.0166
▁dominant	-10.0166
▁glance	-10.0166
spire	-10.0166
how	-10.0167
▁impossible	-10.0183
▁blend	-10.0186
=0	-10.0188
▁writer	-10.0196
ji	-10.0201
45	-10.0203
▁later	-10.0206
▁cup	-10.0218
▁academic	-10.0218
▁boundaries	-10.0218
▁satisfy	-10.0218
▁border	-10.0224
▁degree	-10.0234
▁pick	-10.0235
▁requires	-10.024
89	-10.025
rise	-10.0252
▁scientific	-10.0254
True	-10.0255
thoughts	-10.0256
Qu	-10.0259
▁tag	-10.0263
Dialog	-10.0272
▁silk	-10.0273
▁True	-10.0273
▁limitations	-10.0275
▁manipulat	-10.0277
69	-10.0278
▁nor	-10.0284
▁French	-10.0289
▁SAME	-10.0289
Result	-10.0289
Generate	-10.029
▁Orient	-10.029
▁32	-10.0291
▁cheek	-10.0291
/∂	-10.0295
▁Cu	-10.0295
http	-10.0301
▁snow	-10.0302
parse	-10.0303
▁Act	-10.0305
▁distribut	-10.0307
Width	-10.0307
▁historical	-10.0307
▁Artist	-10.0308
▁discourse	-10.0308
▁falls	-10.0313
▁artistic	-10.0317
▁focused	-10.0322
▁root	-10.0331
▁gather	-10.0336
▁counter	-10.0344
▁sources	-10.0346
▁forget	-10.0348
▁etc	-10.0348
▁Cha	-10.0353
▁gem	-10.0359
▁gave	-10.0361
▁presentation	-10.037
▁wanted	-10.0373
▁capital	-10.0379
▁ladies	-10.0379
technique	-10.0385
▁quick	-10.0391
late	-10.0395
ф	-10.0395
▁empty	-10.0397
||	-10.0399
ATE	-10.0399
▁discover	-10.0401
what	-10.0409
是	-10.0413
car	-10.0415
▁expand	-10.0419
▁warn	-10.0425
▁straight	-10.0432
▁/*	-10.0434
header	-10.0437
▁massive	-10.044
-1)	-10.0442
▁horror	-10.0451
▁brace	-10.0451
OS	-10.0452
▁song	-10.0454
▁MUST	-10.0457
▁Test	-10.0466
▁construct	-10.0467
▁Class	-10.0468
Point	-10.0478
▁comfort	-10.048
▁correctly	-10.0486
menu	-10.0495
▁victim	-10.0505
▁Player	-10.0505
▁outcome	-10.0506
How	-10.0511
▁slip	-10.0523
▁responsible	-10.0523
▁exchange	-10.0524
++	-10.0532
▁smirk	-10.0541
draw	-10.0542
▁chart	-10.0544
▁fair	-10.0558
Target	-10.056
▁separate	-10.056
Delete	-10.0561
UC	-10.0564
ть	-10.0572
ama	-10.0576
08	-10.0576
▁Focus	-10.0578
▁cloud	-10.0578
▁waist	-10.0597
hop	-10.0597
▁sisters	-10.0597
person	-10.0599
▁fucked	-10.0602
33	-10.0611
loss	-10.0611
▁half	-10.0612
▁captured	-10.0614
mahl	-10.0615
▁species	-10.0615
▁waiting	-10.0615
▁/>	-10.062
▁1000	-10.062
▁suddenly	-10.0628
Please	-10.0628
▁plt	-10.063
▁smell	-10.0633
▁finish	-10.0633
“	-10.0635
▁existence	-10.0636
▁comfortable	-10.0639
▁\\	-10.0641
▁descriptions	-10.0644
Wh	-10.0644
▁29	-10.0651
▁intelligence	-10.0651
volving	-10.0651
▁freedom	-10.0653
▁law	-10.0656
▁firm	-10.0661
▁son	-10.0665
System	-10.0666
ju	-10.0673
ium	-10.0675
▁moon	-10.0678
ла	-10.0684
▁0.5	-10.0686
▁sudden	-10.0693
MA	-10.0695
shadow	-10.0695
▁lock	-10.0696
▁qui	-10.0697
grid	-10.0698
に	-10.07
ware	-10.0701
▁employees	-10.0702
ри	-10.0707
▁SEO	-10.0707
weight	-10.0708
▁knee	-10.0708
lum	-10.0711
▁decide	-10.0711
▁manner	-10.0716
▁Train	-10.0718
En	-10.072
error	-10.0725
▁enemies	-10.0725
Buffer	-10.0725
▁San	-10.0728
▁contribut	-10.0731
0.0	-10.0731
ella	-10.0732
fit	-10.0736
▁wheelchair	-10.0744
▁feedback	-10.0744
▁dead	-10.0749
▁Red	-10.0756
Range	-10.0761
▁Soviet	-10.0762
cursor	-10.0763
▁mere	-10.0764
▁father	-10.0764
last	-10.0768
face	-10.077
ham	-10.0776
▁LOAD	-10.0781
▁contrast	-10.0781
▁deliver	-10.0781
▁device	-10.0781
▁determination	-10.0784
codec	-10.0787
aver	-10.0794
▁constant	-10.0797
▁dimension	-10.0803
▁determined	-10.0806
▁trade	-10.0808
Map	-10.081
▁serious	-10.0819
Style	-10.0822
▁chain	-10.0822
255	-10.0825
NAME	-10.0828
args	-10.0834
▁recovery	-10.0837
gged	-10.0837
Exception	-10.0837
▁fierce	-10.0837
▁variance	-10.0837
▁spell	-10.0838
▁paragraph	-10.0838
shirt	-10.0839
▁becoming	-10.0839
flex	-10.0843
▁starting	-10.0851
▁grew	-10.0856
▁4:	-10.0857
▁spent	-10.0865
▁barely	-10.0878
memory	-10.0879
!”	-10.088
21	-10.0882
▁Gen	-10.0885
▁tries	-10.0888
caption	-10.0889
▁expert	-10.0893
▁Emily	-10.0894
▁couple	-10.0894
▁Overall	-10.0896
prompt	-10.0897
▁glow	-10.0899
peak	-10.0899
stitution	-10.0901
用	-10.0911
▁Earth	-10.0913
▁Game	-10.0913
gpt	-10.0915
▁national	-10.0918
terior	-10.0918
▁lust	-10.092
ulti	-10.0921
▁(!	-10.0921
profile	-10.093
▁encourage	-10.0932
▁Niccolo	-10.0935
▁Steve	-10.0936
▁board	-10.0942
▁Inter	-10.0945
▁brief	-10.0951
▁concerns	-10.0952
▁repeat	-10.0953
ku	-10.0954
▁monthly	-10.0958
awn	-10.096
▁host	-10.096
▁Caller	-10.0966
▁fulfill	-10.097
▁Since	-10.097
про	-10.0973
EL	-10.0976
▁followed	-10.0977
▁muscle	-10.0989
▁replies	-10.0989
▁road	-10.0991
▁member	-10.0992
▁ultimate	-10.0995
▁sentences	-10.0996
▁deeply	-10.0998
▁approached	-10.1005
▁wife	-10.1008
▁ethics	-10.1009
▁thick	-10.1011
▁remaining	-10.1024
▁sand	-10.1027
▁switch	-10.1028
▁hung	-10.1033
summary	-10.1036
▁Open	-10.104
▁efforts	-10.1042
▁intimate	-10.1046
▁spend	-10.1047
▁Arya	-10.1049
▁China	-10.105
OT	-10.1051
Me	-10.1059
NsfwGPT	-10.1065
▁Time	-10.1084
▁crowd	-10.1085
UN	-10.1086
▁throw	-10.109
▁frequency	-10.1107
▁password	-10.1108
87	-10.1108
▁expect	-10.1115
▁tease	-10.1117
▁pee	-10.1118
▁picture	-10.112
▁dataset	-10.1141
║	-10.1142
▁usually	-10.1144
▁statement	-10.1145
▁Sta	-10.1147
▁entirely	-10.1157
▁captivating	-10.1162
ε	-10.1162
▁employee	-10.1171
choice	-10.1176
TER	-10.1177
▁rise	-10.1178
▁Our	-10.1178
▁copy	-10.1181
▁suffer	-10.1181
▁shut	-10.1183
▁involved	-10.1188
▁filters	-10.1193
suggestions	-10.1197
▁navigate	-10.1201
▁experienced	-10.1215
Rank	-10.1217
▁major	-10.122
▁spoke	-10.1224
><	-10.1226
▁cook	-10.1228
handle	-10.1234
▁catheter	-10.124
eth	-10.1242
ban	-10.1243
▁States	-10.1245
▁King	-10.1248
▁electric	-10.1259
▁sensitive	-10.1259
-20	-10.1265
▁45	-10.1268
driven	-10.1269
▁segment	-10.1279
£	-10.1279
With	-10.128
Create	-10.1284
▁standing	-10.1286
▁sent	-10.1294
62	-10.1295
ique	-10.1301
▁American	-10.1313
▁however	-10.132
▁sports	-10.132
jo	-10.133
▁Ab	-10.1337
▁surface	-10.1338
▁forced	-10.1339
Element	-10.134
OU	-10.134
▁Had	-10.1348
▁33	-10.1349
scale	-10.1354
oom	-10.1355
▁sweat	-10.136
▁photo	-10.1365
▁worth	-10.1367
И	-10.1377
▁tickling	-10.1378
▁secure	-10.1378
where	-10.1379
▁calm	-10.138
tag	-10.138
▁grand	-10.1382
Cl	-10.1383
cap	-10.139
▁potentially	-10.1391
▁recommend	-10.1395
▁drawn	-10.1397
▁Emma	-10.1398
via	-10.1399
▁38	-10.1404
▁band	-10.1413
▁benefits	-10.1415
▁mobility	-10.1417
vector	-10.142
find	-10.1427
▁Gendry	-10.1437
calc	-10.1439
▁status	-10.144
▁Well	-10.1442
hang	-10.1445
▁adopt	-10.1451
lash	-10.1456
▁pride	-10.1457
▁conduct	-10.1457
▁warnings	-10.146
response	-10.1461
matrix	-10.1461
▁module	-10.1469
▁watching	-10.1472
Yes	-10.1476
▁Black	-10.1477
▁Ensure	-10.1477
Effect	-10.1477
09	-10.1481
lop	-10.1482
▁trail	-10.1482
▁charge	-10.1492
▁Memory	-10.1497
Manager	-10.1498
▁insights	-10.1504
▁activity	-10.1504
ball	-10.1512
á	-10.1517
▁curiosity	-10.1517
▁comply	-10.1533
▁leather	-10.1537
uh	-10.1542
const	-10.1543
▁Event	-10.1551
▁payment	-10.1554
▁Freddie	-10.1557
▁Portrait	-10.1557
▁combine	-10.1559
▁kiss	-10.1561
▁feature	-10.1572
▁attitude	-10.1578
▁href	-10.1578
▁whatever	-10.1578
Child	-10.1579
▁deeper	-10.1582
wrap	-10.1582
▁bias	-10.1582
▁folder	-10.1583
▁metal	-10.1585
mine	-10.1586
ada	-10.1588
zy	-10.1595
▁variety	-10.1598
▁padding	-10.1598
ан	-10.1605
omi	-10.1609
▁extensive	-10.1618
▁unexpected	-10.1618
▁Form	-10.1619
▁creatures	-10.1621
now	-10.1626
▁cum	-10.1636
long	-10.1637
▁appointment	-10.1639
▁slender	-10.1639
▁slave	-10.1639
▁court	-10.1642
▁resolve	-10.1642
▁aware	-10.1647
result	-10.1648
▁tender	-10.1651
▁updated	-10.1654
▁extremely	-10.1658
▁independent	-10.1659
▁surge	-10.166
03	-10.1669
▁passed	-10.1673
hat	-10.1673
▁Art	-10.1679
▁outline	-10.168
Array	-10.169
▁dressed	-10.1695
flow	-10.1699
▁insert	-10.1699
▁cv	-10.1699
output	-10.1713
▁unusual	-10.172
Hand	-10.1724
reason	-10.1727
▁assert	-10.1727
▁worker	-10.1735
gram	-10.1738
idx	-10.174
▁concentration	-10.1741
hood	-10.1745
▁shy	-10.1747
▁measures	-10.1748
graphic	-10.175
▁execute	-10.1759
quality	-10.176
ipped	-10.1761
▁pretty	-10.1761
▁Monster	-10.1761
▁loyalty	-10.1763
▁anti	-10.1766
storm	-10.1769
▁revealing	-10.1776
▁valuable	-10.1782
▁directly	-10.1783
process	-10.1796
show	-10.1796
▁не	-10.1803
▁betray	-10.1803
54	-10.1809
▁pan	-10.1822
下	-10.1823
▁Third	-10.1823
▁Yes	-10.1829
▁sole	-10.1831
▁reading	-10.1832
▁Never	-10.1839
▁streets	-10.184
▁exposed	-10.1844
▁smart	-10.1844
▁relax	-10.1844
dir	-10.1846
▁Mai	-10.1846
▁internet	-10.1847
agg	-10.1855
ет	-10.1857
option	-10.1863
▁criminal	-10.1865
number	-10.1865
▁carefully	-10.1868
▁sender	-10.1872
▁gathering	-10.1873
Component	-10.1874
▁vast	-10.1877
▁involves	-10.1886
95	-10.1888
ifier	-10.1891
▁consistent	-10.1893
▁suitable	-10.1901
▁camp	-10.1904
▁innocent	-10.1907
ло	-10.1907
▁template	-10.1908
▁[??	-10.1916
1.0	-10.1919
▁sending	-10.1927
▁associated	-10.1927
▁prepared	-10.1928
▁middle	-10.1928
▁pop	-10.1932
▁sentence	-10.1943
▁friendly	-10.1951
▁loved	-10.1953
▁pe	-10.1954
▁sales	-10.1954
▁1;	-10.1955
ttered	-10.1956
Icon	-10.1965
▁gene	-10.1969
▁generating	-10.1969
▁Japanese	-10.197
▁evil	-10.197
▁relative	-10.1972
Temp	-10.1974
▁sustainable	-10.1975
CT	-10.1988
▁Slide	-10.199
kernel	-10.1991
▁favorite	-10.1991
▁foster	-10.1993
▁grant	-10.1993
=“	-10.2003
28	-10.2007
▁locked	-10.2009
▁primari	-10.2012
▁Alice	-10.2018
▁threat	-10.2018
▁shot	-10.202
▁53	-10.2026
▁creation	-10.2029
▁AS	-10.203
▁confidence	-10.2033
SQL	-10.2033
▁hesitate	-10.2033
▁planet	-10.2038
▁variation	-10.2054
force	-10.2059
▁vision	-10.206
▁OF	-10.2061
order	-10.2068
▁mortal	-10.2071
▁collection	-10.2073
ibility	-10.2075
76	-10.2081
By	-10.2081
▁connected	-10.2082
ado	-10.2085
OP	-10.2095
▁Greek	-10.2097
▁36	-10.2101
resident	-10.2102
▁resistance	-10.2103
▁Up	-10.2109
▁five	-10.2111
▁observe	-10.2112
▁told	-10.2114
Well	-10.2115
▁virtual	-10.2118
▁companies	-10.2118
▁simulate	-10.2118
▁mountain	-10.2118
▁sinister	-10.2119
put	-10.2119
▁ideal	-10.2122
▁regardless	-10.2122
▁improvement	-10.2125
▁inferior	-10.2139
▁bounce	-10.2146
▁currently	-10.2148
▁teasing	-10.2148
▁driver	-10.2149
rie	-10.2151
|;	-10.2154
cra	-10.2155
▁Through	-10.2158
▁Suddenly	-10.2161
▁cute	-10.2163
lap	-10.2165
>();	-10.2166
▁pen	-10.2175
▁acting	-10.2176
▁sister	-10.2182
▁Instead	-10.2182
▁square	-10.2182
shape	-10.2184
▁money	-10.2184
▁entity	-10.2186
▁monitor	-10.219
function	-10.2192
midst	-10.2193
▁defeat	-10.2199
circ	-10.2201
▁scientist	-10.2204
▁generation	-10.2204
▁TBSW	-10.2206
▁Japan	-10.2206
]]	-10.2207
▁Next	-10.2208
begin	-10.2212
being	-10.2214
▁threaten	-10.2218
▁flat	-10.2219
▁Bends	-10.2228
▁@《	-10.223
▁jump	-10.2233
▁Ju	-10.2237
▁stock	-10.2237
ти	-10.224
▁Frelka	-10.2247
▁storage	-10.2247
kamal	-10.2247
}\	-10.226
▁restore	-10.2262
▁walked	-10.227
▁tale	-10.2285
▁argue	-10.2291
▁mission	-10.2293
▁severe	-10.2294
77	-10.2295
Wait	-10.2298
▁sexy	-10.2302
05	-10.2303
▁Example	-10.2312
▁enemy	-10.2312
▁fresh	-10.2312
▁arrive	-10.2312
And	-10.2318
psi	-10.232
78	-10.2323
▁blonde	-10.2334
▁fashion	-10.2334
▁remove	-10.2335
fill	-10.2342
▁Note	-10.2344
step	-10.2352
▁latest	-10.2353
▁за	-10.2354
▁thin	-10.2355
О	-10.2355
▁Prompt	-10.2355
▁gently	-10.2356
quit	-10.2363
Furthermore	-10.2377
▁maximum	-10.2377
plot	-10.2393
▁Hijab	-10.2399
▁obtain	-10.2399
crypt	-10.2401
turn	-10.2408
▁2022	-10.241
▁procedure	-10.2421
▁cunning	-10.2421
▁buffer	-10.2427
▁generated	-10.2429
histogram	-10.2431
▁resulting	-10.2435
elif	-10.244
▁rare	-10.2444
▁Great	-10.2445
▁protection	-10.2447
tched	-10.2451
▁cop	-10.2455
▁Page	-10.2463
Lo	-10.2464
player	-10.2465
break	-10.2467
visible	-10.2468
iness	-10.2468
▁motivation	-10.2474
---	-10.2476
▁delight	-10.2481
▁enable	-10.2492
▁spine	-10.2496
▁classes	-10.2497
та	-10.2499
OW	-10.2502
▁3)	-10.2505
β	-10.2509
▁appreciate	-10.251
▁superior	-10.251
▁Falcon	-10.251
▁convey	-10.251
▁larger	-10.2511
▁mess	-10.2514
RT	-10.2528
200	-10.253
▁NULL	-10.2532
▁accent	-10.2533
▁False	-10.2536
pfc	-10.254
▁WILL	-10.2554
▁ignore	-10.2554
▁Day	-10.2558
▁<=	-10.2562
even	-10.2569
▁diffusion	-10.2576
Process	-10.2577
▁confront	-10.2578
▁consent	-10.2578
▁admit	-10.2579
▁resolution	-10.2579
stone	-10.258
▁keyword	-10.2581
▁witness	-10.2583
gate	-10.2588
▁Har	-10.2589
▁demonstrate	-10.2593
▁replaced	-10.2594
▁maintaining	-10.2597
▁Invent	-10.2599
▁attribute	-10.2599
▁perception	-10.2599
▁poison	-10.2599
▁sultry	-10.2599
Service	-10.2599
▁wander	-10.2599
72	-10.26
▁sitting	-10.2604
dom	-10.262
▁intelligent	-10.2621
holder	-10.2623
▁>>	-10.2624
▁emphasize	-10.263
▁camera	-10.2632
▁cho	-10.2632
▁Yu	-10.2636
▁prove	-10.2641
}"")	-10.2643
▁vulnerability	-10.2644
▁Long	-10.2656
Tra	-10.2661
▁recognize	-10.2662
▁behaviour	-10.2666
home	-10.2668
from	-10.2669
cker	-10.2678
▁Plan	-10.2689
Give	-10.269
uerto	-10.269
▁interface	-10.269
event	-10.2699
mount	-10.2709
▁added	-10.271
▁worry	-10.2711
▁scent	-10.2719
left	-10.2719
щ	-10.2734
▁phrase	-10.2734
▁THIS	-10.2734
▁quote	-10.2734
look	-10.2742
▁attract	-10.2744
▁components	-10.2744
other	-10.2755
So	-10.2756
ë	-10.2757
▁nullification	-10.2761
▁refuse	-10.2762
ame	-10.2765
▁TV	-10.2772
Al	-10.2778
▁happened	-10.2778
Describe	-10.278
▁exciting	-10.278
▁unsure	-10.2781
で	-10.2794
Border	-10.2799
▁vibrant	-10.2802
▁drink	-10.2802
▁earth	-10.2804
▁bullet	-10.2804
▁justice	-10.2805
▁involve	-10.2816
close	-10.2819
▁compet	-10.282
Form	-10.283
frac	-10.2832
▁brain	-10.2837
pred	-10.284
▁representation	-10.2846
▁narrow	-10.2848
▁trait	-10.285
▁belong	-10.2854
friendly	-10.2858
drop	-10.2867
▁grace	-10.2868
▁National	-10.2871
pussy	-10.2872
Args	-10.2872
()`	-10.2879
field	-10.2881
▁evaluate	-10.2882
aware	-10.289
masterpiece	-10.2894
▁brush	-10.2894
Chart	-10.2894
▁societies	-10.2917
▁steady	-10.2917
▁offensive	-10.2917
▁science	-10.2917
▁curious	-10.2917
▁huge	-10.2918
Scene	-10.2918
▁flag	-10.2927
None	-10.2928
▁respective	-10.2931
▁families	-10.294
▁mirror	-10.294
dot	-10.2943
check	-10.2948
Good	-10.2949
match	-10.2955
▁Pi	-10.2956
▁featur	-10.2958
▁month	-10.2961
▁peace	-10.2963
▁military	-10.2964
▁silence	-10.2964
▁graceful	-10.2964
▁effort	-10.2968
▁schedule	-10.2971
▁rock	-10.2977
\""	-10.2979
▁MA	-10.298
click	-10.2983
▁transaction	-10.2988
▁thank	-10.2989
▁extract	-10.2992
▁Sub	-10.2996
▁comment	-10.2998
search	-10.3002
▁chosen	-10.3011
▁shiver	-10.3011
▁ALL	-10.3014
fall	-10.3023
random	-10.3027
▁fail	-10.3031
▁competitive	-10.3034
▁warrior	-10.3034
rent	-10.3034
ве	-10.3035
phone	-10.3035
▁noticed	-10.3043
format	-10.3044
▁crush	-10.3057
▁mood	-10.3058
▁therapy	-10.306
▁stability	-10.3072
Net	-10.3072
▁privacy	-10.308
▁developing	-10.3082
interpret	-10.3083
mak	-10.3086
▁flu	-10.3089
▁mention	-10.3098
AV	-10.3103
▁Gu	-10.3104
▁Bertier	-10.3104
▁Second	-10.3104
▁depict	-10.3104
▁logic	-10.3106
▁Replace	-10.3115
▁consist	-10.3123
version	-10.3127
▁optimization	-10.3128
Entity	-10.3128
▁deny	-10.3131
ami	-10.3133
ridge	-10.314
Amount	-10.3141
elle	-10.3146
thread	-10.3146
▁clearly	-10.315
▁numerous	-10.3151
▁rush	-10.3152
sample	-10.3152
▁volume	-10.3158
erial	-10.3168
▁stunning	-10.3175
▁memories	-10.3175
▁reward	-10.3176
Load	-10.3177
▁dog	-10.3181
▁vulnerable	-10.3199
Empty	-10.3199
▁central	-10.3199
36	-10.3199
▁portray	-10.3202
▁stranger	-10.3205
▁capable	-10.3208
ahr	-10.3211
▁talking	-10.3213
target	-10.3221
▁familiar	-10.3222
▁mistress	-10.3222
▁satisfaction	-10.3222
▁shimmer	-10.3222
ounce	-10.3229
▁morally	-10.3239
range	-10.3257
!!!	-10.3271
▁faint	-10.3272
▁moan	-10.3276
▁usage	-10.3279
▁island	-10.3281
▁Today	-10.3281
▁according	-10.3286
Hey	-10.3293
▁Define	-10.3294
▁replied	-10.3294
▁Amara	-10.3294
▁prior	-10.3294
▁JPanel	-10.3296
▁Post	-10.3299
▁innovative	-10.3318
▁traffic	-10.3318
▁throat	-10.3318
▁wrapped	-10.3318
▁entry	-10.3321
▁die	-10.3326
▁businesses	-10.3338
▁Issues	-10.3342
audio	-10.3343
▁bird	-10.3343
▁sell	-10.3351
79	-10.3353
▁fighting	-10.3354
location	-10.3354
HER	-10.3356
▁Chi	-10.3361
æ	-10.3366
▁Prefix	-10.3367
▁competition	-10.3368
▁panel	-10.3375
▁gel	-10.3378
house	-10.3379
▁Develop	-10.3382
▁investment	-10.3385
▁*/	-10.3391
▁trouble	-10.3391
Normal	-10.3391
solving	-10.3391
▁crime	-10.3391
picture	-10.3395
▁scan	-10.3399
02	-10.3403
▁consume	-10.3406
▁async	-10.341
▁walking	-10.3413
▁moving	-10.3415
smiling	-10.3416
▁built	-10.3439
▁violence	-10.3439
▁James	-10.344
▁odd	-10.3441
▁unknown	-10.3443
browse	-10.3445
▁Cap	-10.3456
logger	-10.3463
▁correspond	-10.3464
lob	-10.3465
▁typically	-10.347
Open	-10.3471
▁closed	-10.3472
▁Wi	-10.3472
▁torch	-10.3473
▁torture	-10.3489
▁Internet	-10.3489
▁ongoing	-10.3489
▁continuous	-10.3491
Stay	-10.3502
▁discovered	-10.3507
radius	-10.3513
▁demeanor	-10.3513
▁exercise	-10.3513
accuracies	-10.3513
true	-10.3514
▁enchanting	-10.3515
▁summer	-10.3515
▁react	-10.3526
ATION	-10.3529
full	-10.3533
▁curly	-10.354
▁Based	-10.3549
▁construction	-10.3551
▁linger	-10.3551
▁disp	-10.3555
▁talent	-10.3563
▁revel	-10.3565
▁gas	-10.3579
▁tear	-10.3588
▁shop	-10.3588
▁alter	-10.3597
Start	-10.3598
▁reinforce	-10.3611
ой	-10.3621
page	-10.3623
sqrt	-10.3636
▁motion	-10.3645
ي	-10.3661
▁budget	-10.3661
▁scholar	-10.3661
ав	-10.367
▁refine	-10.3673
▁overwhelming	-10.3674
▁tense	-10.3676
Play	-10.3681
为	-10.3684
▁performing	-10.3685
▁committed	-10.3686
▁Always	-10.3686
comments	-10.3688
▁Research	-10.3691
▁received	-10.3692
▁planning	-10.3699
making	-10.3699
▁turning	-10.3701
▁deadly	-10.3704
DB	-10.3715
with	-10.3719
▁accordingly	-10.3719
Un	-10.3722
constructive	-10.3734
Field	-10.3736
Random	-10.3736
Stop	-10.3736
▁remained	-10.3741
▁вы	-10.3742
world	-10.3752
Deep	-10.3754
free	-10.3756
▁investigation	-10.3761
▁pretend	-10.3763
Draw	-10.3765
97	-10.3766
▁legend	-10.3768
Gra	-10.3781
一	-10.3785
▁campaign	-10.3786
▁technologies	-10.3786
▁eternal	-10.3786
▁purred	-10.3786
▁watched	-10.3789
▁exactly	-10.3791
▁sigh	-10.3802
rtificial	-10.3812
▁communicate	-10.3812
▁promoting	-10.3812
▁poor	-10.3815
▁attractive	-10.3819
74	-10.3823
push	-10.3826
▁optimize	-10.3831
Agent	-10.3832
▁significantly	-10.3833
▁ANYTHING	-10.3837
▁Fazekas	-10.3837
▁purchase	-10.3837
▁Also	-10.3839
▁fat	-10.3839
loader	-10.3842
ram	-10.385
▁vary	-10.3852
ру	-10.3855
▁flight	-10.386
Instagram	-10.3861
▁intention	-10.3863
▁hour	-10.3868
component	-10.3877
conscious	-10.3881
Developer	-10.3883
▁Tzadriel	-10.3888
▁distinct	-10.3888
П	-10.3888
▁lover	-10.3889
▁agony	-10.3889
Option	-10.3889
▁Mark	-10.3891
▁enjoying	-10.3899
▁34	-10.3909
CHA	-10.3911
container	-10.3926
▁containing	-10.393
▁typical	-10.3932
PI	-10.3936
All	-10.3936
password	-10.3937
▁kept	-10.3939
▁pink	-10.394
29	-10.3946
▁reaches	-10.3946
valid	-10.3946
▁fetch	-10.3956
▁defined	-10.3956
ン	-10.3957
▁aspect	-10.3957
че	-10.3964
▁Chinese	-10.3964
▁flirt	-10.3964
▁average	-10.3965
transform	-10.399
▁silent	-10.399
▁rival	-10.3991
▁casting	-10.3992
▁nearby	-10.3992
EC	-10.3996
▁assessment	-10.4
▁estimate	-10.4003
▁monitoring	-10.4007
▁measure	-10.4013
CONST	-10.4016
ION	-10.4016
▁citizen	-10.4016
▁romantic	-10.4016
▁garden	-10.4016
▁micro	-10.4016
▁dealing	-10.4019
▁trace	-10.4021
▁warmth	-10.4033
ения	-10.4042
▁intellectual	-10.4042
▁police	-10.4042
Current	-10.4042
▁realize	-10.4049
▁Miss	-10.406
END	-10.4064
×	-10.4068
▁accomplish	-10.4068
▁REPEAT	-10.4068
▁understood	-10.4068
▁hips	-10.4069
▁relie	-10.4071
illa	-10.4071
wear	-10.4075
Iwoylo	-10.4094
plugin	-10.4094
▁examine	-10.4094
Follow	-10.4094
▁solid	-10.4095
ос	-10.4099
conv	-10.41
▁previously	-10.4105
100%	-10.4106
Window	-10.4108
▁implications	-10.412
▁chaos	-10.412
▁silver	-10.412
▁teacher	-10.412
▁colon	-10.4122
▁tickle	-10.4126
▁useful	-10.4136
85	-10.4144
▁Defense	-10.4146
▁Moreover	-10.4146
▁properties	-10.4147
▁compared	-10.416
▁discussion	-10.4166
▁theoretical	-10.4172
▁seemingly	-10.4172
▁programmed	-10.4173
Payment	-10.4173
▁tend	-10.4174
▁Project	-10.4175
active	-10.4175
double	-10.4178
▁Sam	-10.4182
▁City	-10.4189
▁stable	-10.4192
▁domain	-10.4196
▁uniform	-10.4198
▁alluring	-10.42
▁cock	-10.42
▁offered	-10.4212
▁caused	-10.4223
▁Bardie	-10.4225
▁baby	-10.4227
▁relief	-10.4236
ить	-10.4239
curr	-10.4247
but	-10.4249
▁Although	-10.4251
▁participant	-10.4251
▁protocol	-10.4251
▁grateful	-10.4251
▁proceed	-10.4251
▁suppress	-10.4252
▁property	-10.4256
▁strain	-10.4261
translate	-10.4265
▁spi	-10.4268
law	-10.4274
▁pattern	-10.4278
Life	-10.4281
winner	-10.4282
▁plus	-10.4285
war	-10.4285
Usage	-10.4289
▁ride	-10.4301
文	-10.4302
ля	-10.4308
ette	-10.4326
ки	-10.4329
▁developer	-10.4329
▁Elessandria	-10.4331
▁Respond	-10.4331
▁technical	-10.4331
▁Before	-10.4331
RGB	-10.4331
fmt	-10.4332
▁street	-10.4336
▁stronger	-10.4339
1->	-10.4343
س	-10.4357
▁tongue	-10.4358
▁genre	-10.4361
Close	-10.4365
FF	-10.437
94	-10.4373
▁sustain	-10.4376
Total	-10.4383
▁HTML	-10.4384
▁Spotify	-10.4384
▁tantalizing	-10.4384
▁Consider	-10.4384
▁mistake	-10.4386
SO	-10.4386
Creat	-10.4389
HI	-10.439
▁Star	-10.439
▁luck	-10.4394
▁perhaps	-10.4411
patience	-10.4411
▁intrigue	-10.4411
▁Susan	-10.4411
▁Calculate	-10.4413
▁tied	-10.4414
▁exact	-10.4416
▁stress	-10.4418
▁broken	-10.4423
一个	-10.4437
▁chamber	-10.4438
▁Dragon	-10.4438
▁indulg	-10.4438
izer	-10.4439
Product	-10.4444
▁elder	-10.4445
connect	-10.4447
complete	-10.4449
Database	-10.4451
▁office	-10.4451
▁lose	-10.4451
▁route	-10.4453
▁moved	-10.4454
▁tax	-10.4455
▁squeeze	-10.4465
▁devoted	-10.4465
▁Ruby	-10.4465
▁sharing	-10.4465
Config	-10.4465
▁bow	-10.4479
▁specified	-10.4489
▁spark	-10.4491
▁SQLite	-10.4492
▁transfer	-10.4493
▁friendship	-10.4495
rah	-10.4496
just	-10.45
▁Top	-10.4514
▁pooping	-10.4518
▁promotion	-10.4519
▁guidance	-10.4519
▁flesh	-10.4519
▁shown	-10.4519
MIN	-10.4533
Action	-10.4539
▁Skills	-10.4546
▁ال	-10.4546
▁staff	-10.4546
Filter	-10.4546
Group	-10.4547
your	-10.4549
▁textBox	-10.4551
▁Rico	-10.4553
Handle	-10.4571
▁drawing	-10.4572
▁capabilities	-10.4573
Length	-10.4573
▁modify	-10.4573
▁bun	-10.4575
▁selection	-10.4575
▁speaking	-10.4577
best	-10.4595
▁armor	-10.46
▁Meanwhile	-10.46
í	-10.46
▁specifically	-10.4611
tell	-10.4614
nav	-10.4626
DD	-10.4628
π	-10.4628
▁perpetuat	-10.4628
▁YouTube	-10.4628
life	-10.4647
request	-10.4649
▁performed	-10.4655
▁strategic	-10.4655
▁capture	-10.4658
▁mixture	-10.4658
▁stepped	-10.4659
▁developed	-10.4662
▁cheer	-10.4667
▁exquisite	-10.4683
▁Feel	-10.4684
▁transition	-10.4685
▁52	-10.4686
API	-10.4687
change	-10.4695
pkt	-10.4704
(2)	-10.4707
这	-10.4709
▁participate	-10.4711
▁fabric	-10.4711
▁Smart	-10.4711
plication	-10.4717
ди	-10.4723
End	-10.4729
ー	-10.4731
TBSW	-10.4736
▁childhood	-10.474
▁Republic	-10.4741
▁Market	-10.4744
▁wake	-10.4753
most	-10.4763
▁Flamand	-10.4766
▁Personal	-10.4766
Price	-10.4766
▁Free	-10.477
▁journalist	-10.4785
▁rehabilitation	-10.4794
▁million	-10.4794
▁combat	-10.4794
▁During	-10.4795
▁до	-10.4796
loo	-10.4801
▁bare	-10.4807
▁formula	-10.4822
uffle	-10.4834
Fri	-10.4847
Column	-10.485
OCR	-10.485
▁river	-10.4852
Not	-10.4853
▁shame	-10.4853
▁faith	-10.4862
▁Said	-10.4863
2019	-10.4868
▁piercing	-10.4878
ö	-10.4878
▁plate	-10.4879
▁prediction	-10.4882
▁Have	-10.4884
brightness	-10.4893
400	-10.4895
▁math	-10.4895
5%	-10.4904
Panel	-10.4904
▁descriptive	-10.4906
▁fruit	-10.4906
▁perverse	-10.4913
▁maybe	-10.4915
▁Characters	-10.4915
MENT	-10.4925
▁Last	-10.4926
▁alphabet	-10.4934
▁architecture	-10.4934
▁unwavering	-10.4934
▁lean	-10.4935
▁gap	-10.4943
▁colorful	-10.495
rry	-10.4962
▁golden	-10.4963
▁contract	-10.4963
Initial	-10.4964
lua	-10.4966
symbol	-10.4967
device	-10.4967
▁grasp	-10.4968
▁ease	-10.4985
▁brother	-10.4991
percentage	-10.4991
Function	-10.4991
▁suffering	-10.4992
▁joy	-10.4993
▁prey	-10.4997
Sure	-10.4998
▁Rock	-10.5007
▁51	-10.5015
▁failed	-10.5016
以	-10.5018
▁significance	-10.502
▁May	-10.5023
▁download	-10.5034
▁authentic	-10.5048
▁ecstasy	-10.5048
▁incorporate	-10.5048
case	-10.5064
Game	-10.5066
[2]	-10.5068
context	-10.5073
▁Sapphie	-10.5077
▁unfiltered	-10.5077
▁anime	-10.5079
▁empower	-10.5079
chat	-10.5084
chart	-10.5085
Hash	-10.509
▁className	-10.5091
axis	-10.5097
▁nation	-10.5103
▁Any	-10.5104
▁survival	-10.5105
▁essence	-10.5106
▁Learn	-10.5106
▁giant	-10.5106
▁steel	-10.511
▁fluid	-10.5117
quire	-10.5133
▁oil	-10.5134
▁efficiency	-10.5134
▁simultaneously	-10.5134
▁healthcare	-10.5134
Description	-10.5134
Client	-10.5137
▁Design	-10.5142
ography	-10.5144
▁Tur	-10.5145
(""@	-10.5155
▁fuck	-10.5159
▁helpless	-10.516
▁crisis	-10.5163
▁plea	-10.5175
▁resource	-10.5181
▁err	-10.5189
上	-10.5192
▁hypothetical	-10.5192
▁meticulous	-10.5192
▁Mr	-10.5193
\\	-10.5198
▁-1;	-10.5199
▁fade	-10.5204
と	-10.5208
▁Snow	-10.5209
▁Term	-10.5211
Alright	-10.5214
▁surrounded	-10.5221
▁giggle	-10.5221
▁loud	-10.5222
▁Sarah	-10.5223
▁established	-10.5224
cade	-10.5235
arian	-10.524
▁noble	-10.5245
▁beach	-10.5245
▁immense	-10.525
▁Question	-10.525
▁Selina	-10.525
▁fiery	-10.5251
HE	-10.5257
▁chase	-10.5258
▁usual	-10.5259
▁об	-10.5265
98	-10.5266
There	-10.5268
▁lived	-10.5272
GST	-10.5278
▁Gleswick	-10.528
▁fantasies	-10.528
▁unfold	-10.5285
(10)	-10.5291
define	-10.5299
▁era	-10.5299
▁USE	-10.5302
▁predator	-10.5309
KEY	-10.531
▁delve	-10.531
▁Chris	-10.5317
▁Arlynn	-10.5338
▁sprocket	-10.5338
ó	-10.5338
▁histogramPanel	-10.5338
▁commitment	-10.5338
▁boots	-10.5338
▁directory	-10.5339
Lvl	-10.5339
▁flick	-10.534
▁advance	-10.5342
Health	-10.5345
column	-10.5357
pass	-10.5358
▁taboo	-10.5368
▁intensity	-10.5368
▁vivid	-10.5368
▁harmful	-10.5373
team	-10.5394
float	-10.5418
▁immoral	-10.5427
▁THAT	-10.5427
▁partial	-10.5449
▁portrayal	-10.5452
▁bio	-10.5453
pet	-10.5453
Transform	-10.5454
▁George	-10.5457
▁revolution	-10.5457
▁thousand	-10.5457
Yeah	-10.5457
▁sometimes	-10.5459
▁approaches	-10.5462
▁defend	-10.5477
ErrorL	-10.5483
▁lesson	-10.5484
œ	-10.5487
category	-10.5487
▁stomach	-10.5487
▁chemical	-10.5487
▁regulation	-10.5488
▁slide	-10.549
▁leaned	-10.5498
subtask	-10.55
▁continu	-10.5511
predict	-10.5513
▁bone	-10.5516
行	-10.5516
▁Создае	-10.5517
▁Sexual	-10.5517
▁workshop	-10.5518
▁blur	-10.5519
▁six	-10.5519
▁prefer	-10.5523
▁caress	-10.5525
▁normally	-10.5529
Node	-10.5531
band	-10.5536
▁incredible	-10.5547
▁animation	-10.5548
▁steal	-10.5548
▁thus	-10.5565
à	-10.5577
▁EVERY	-10.5577
▁bizarre	-10.5577
▁elaborate	-10.5577
▁nodded	-10.5577
pip	-10.5579
▁tire	-10.5584
▁:=	-10.5588
▁quest	-10.5604
Connection	-10.5607
τ	-10.5607
▁innovation	-10.5607
▁devotion	-10.5607
▁src	-10.5611
fiance	-10.5613
▁export	-10.5622
Provider	-10.5626
scheduler	-10.5628
session	-10.5633
成	-10.5637
▁Social	-10.5637
▁teaching	-10.5638
Grid	-10.5638
▁appeal	-10.5638
client	-10.5641
▁recall	-10.5642
NCE	-10.5648
▁collaboration	-10.5653
update	-10.5655
Async	-10.5663
▁lies	-10.5666
UM	-10.5668
▁transcend	-10.5668
Integer	-10.5668
▁interpretation	-10.5669
▁drug	-10.5669
NA	-10.5674
depending	-10.5675
meter	-10.5681
tick	-10.5692
Var	-10.5692
▁stack	-10.5694
▁rhythm	-10.5698
Linux	-10.5698
▁reducing	-10.5698
group	-10.5699
tensor	-10.5702
▁endless	-10.571
▁Europe	-10.5725
▁exclusive	-10.5729
▁adidas	-10.5729
discovery	-10.5732
▁recover	-10.5732
east	-10.5732
Section	-10.5736
▁Both	-10.5746
Path	-10.5749
▁instrument	-10.5759
▁yield	-10.5759
▁perceive	-10.576
▁alliance	-10.576
▁intended	-10.576
Thank	-10.5762
▁properly	-10.5762
▁Italy	-10.5764
▁awareness	-10.5766
Detect	-10.5771
월	-10.579
▁consult	-10.579
▁sought	-10.579
widget	-10.5791
▁visa	-10.5799
▁carrying	-10.5799
▁Night	-10.5801
▁inspiration	-10.5802
olar	-10.5808
▁Shi	-10.5812
ə	-10.5821
RecyclerView	-10.5821
▁aphrodisiac	-10.5821
▁daughter	-10.5821
▁trigger	-10.5821
▁Another	-10.5823
▁bank	-10.5824
▁profit	-10.5825
gray	-10.5828
optim	-10.5848
uction	-10.5849
▁plasmid	-10.5852
▁probably	-10.5852
▁fracture	-10.5852
Appliance	-10.5852
▁University	-10.5855
▁chill	-10.5873
▁minimum	-10.5883
▁attach	-10.5884
enchant	-10.5888
Weight	-10.5894
Thread	-10.5898
表示	-10.5905
▁assess	-10.591
▁SHALL	-10.5914
▁VARIATION	-10.5914
▁industries	-10.5914
▁integrate	-10.5914
▁FROM	-10.5914
▁pursuit	-10.5914
Request	-10.5915
Status	-10.5915
▁imperial	-10.5916
ск	-10.592
rick	-10.592
OK	-10.5931
local	-10.5935
93	-10.594
▁manager	-10.5942
ç	-10.5946
▁embarrassment	-10.5946
▁religious	-10.5946
●	-10.5946
▁relation	-10.595
png	-10.5953
▁Setting	-10.5956
join	-10.5959
▁pool	-10.5962
▁highest	-10.597
▁Union	-10.5971
▁spin	-10.5972
▁histogramFrame	-10.5977
ALWAYS	-10.5977
▁heavily	-10.5977
▁incredibly	-10.5977
▁foreign	-10.5978
▁Goku	-10.5978
▁cmd	-10.5985
android	-10.5988
▁Luna	-10.5989
▁logo	-10.5989
radio	-10.599
connection	-10.5998
worker	-10.6003
▁excessive	-10.6008
▁binding	-10.6008
▁remote	-10.6008
▁raised	-10.6012
▁theories	-10.6015
example	-10.602
▁Using	-10.6023
▁Even	-10.6026
▁handling	-10.6035
But	-10.6039
ν	-10.604
exhaust	-10.604
▁Esalnira	-10.604
▁dwarf	-10.604
lambda	-10.604
▁creator	-10.604
▁ONLY	-10.604
bound	-10.6057
82	-10.6058
▁Baelin	-10.6072
▁practical	-10.6072
clipboard	-10.6072
Method	-10.6072
sistent	-10.6072
▁denote	-10.6074
▁winning	-10.6076
▁lift	-10.6077
Program	-10.6077
▁focuses	-10.6083
▁texture	-10.6095
▁inches	-10.6096
▁department	-10.6103
Full	-10.6107
Detail	-10.611
generate	-10.6121
Token	-10.6123
€	-10.6135
ش	-10.6135
▁helpful	-10.6138
App	-10.6145
▁pause	-10.6146
clear	-10.615
▁removed	-10.6151
ать	-10.6152
《	-10.6161
▁setup	-10.6162
▁viewers	-10.6164
▁episode	-10.6167
▁nervous	-10.6167
▁kingdom	-10.6167
▁hyper	-10.6168
▁rape	-10.6171
于	-10.6197
▁pure	-10.6199
▁изображения	-10.6199
▁embark	-10.6199
▁official	-10.6199
▁disease	-10.6199
▁functionality	-10.6199
▁nurse	-10.62
▁brave	-10.6201
▁bag	-10.6208
physi	-10.622
▁destination	-10.6231
▁reputation	-10.6231
////////////////	-10.6231
▁birth	-10.6231
▁finger	-10.6247
▁reset	-10.6253
▁gun	-10.6254
有	-10.6262
▁illustration	-10.6264
▁resembl	-10.6264
$$	-10.6271
が	-10.6286
▁centimeters	-10.6296
▁consumption	-10.6296
Д	-10.6296
▁chatbot	-10.6298
▁exit	-10.63
▁rough	-10.6307
▁shake	-10.6308
▁strike	-10.6332
▁driving	-10.6333
▁sway	-10.6348
▁fell	-10.6351
display	-10.6352
product	-10.6353
2022	-10.6358
了	-10.6359
Once	-10.6361
▁casual	-10.6361
▁wolf	-10.6361
▁chuckle	-10.6361
▁Tri	-10.6367
▁со	-10.6374
▁missing	-10.6378
present	-10.6381
ð	-10.6394
▁Suffix	-10.6394
▁portrait	-10.6394
▁overcome	-10.6394
▁transportation	-10.6402
claim	-10.6424
▁routine	-10.6426
▁Light	-10.644
colonial	-10.644
▁(200	-10.6443
▁Naruto	-10.6459
▁Moistin	-10.6459
▁courage	-10.6459
catalog	-10.646
▁Explo	-10.6461
▁allure	-10.6463
▁circle	-10.6464
Util	-10.6468
▁Call	-10.6484
email	-10.6485
{\	-10.6489
block	-10.6489
Override	-10.6492
▁gnome	-10.6492
▁protein	-10.6492
xff	-10.6496
▁terror	-10.6506
▁alive	-10.6508
▁Olberic	-10.6525
▁trembling	-10.6525
▁extreme	-10.6527
total	-10.6528
▁debt	-10.6531
▁assistant	-10.654
ите	-10.6554
Stream	-10.6557
level	-10.6557
φ	-10.6559
▁bustling	-10.6559
▁Nothing	-10.6559
hunter	-10.6565
▁adhere	-10.6571
scope	-10.6572
ви	-10.6572
▁hint	-10.6579
取	-10.6589
window	-10.659
▁complexity	-10.6591
TYPE	-10.6592
▁exploit	-10.6592
▁doctor	-10.6592
▁dimly	-10.6593
Menu	-10.6597
▁blow	-10.6598
import	-10.6611
▁twist	-10.6625
volleyball	-10.6625
▁unforgettable	-10.6625
template	-10.6626
▁impressive	-10.6659
▁surrender	-10.6659
▁okay	-10.6659
Listener	-10.6659
zip	-10.666
▁vital	-10.666
socket	-10.666
Complete	-10.666
▁Though	-10.6661
▁cash	-10.6661
▁loose	-10.6665
▁flash	-10.6671
fitting	-10.6683
þ	-10.6691
▁ordinary	-10.6693
▁surveillance	-10.6693
▁acknowledge	-10.6693
▁therefore	-10.6693
▁Italian	-10.6693
▁branch	-10.6693
▁Writer	-10.6696
▁Provide	-10.6705
numpy	-10.6716
NN	-10.6724
▁bladder	-10.6726
▁ghost	-10.6726
▁Initialize	-10.6727
shoot	-10.6727
▁stroke	-10.6731
▁swim	-10.6746
CR	-10.6746
pitch	-10.6753
▁configuration	-10.676
▁stumbled	-10.676
▁medication	-10.676
▁adorned	-10.676
PRESID	-10.676
▁bottle	-10.6763
▁woe	-10.6764
build	-10.6765
▁stick	-10.6767
▁Development	-10.6769
▁tradition	-10.679
Unit	-10.6793
我	-10.6793
▁180	-10.6794
▁nipple	-10.6794
▁nullptr	-10.6794
medium	-10.6799
▁emerged	-10.6808
demo	-10.6816
Down	-10.6824
使用	-10.6828
OleDb	-10.6828
▁According	-10.6828
▁gift	-10.6829
▁crash	-10.6829
▁chips	-10.6829
0000	-10.684
▁nice	-10.6843
▁Simpl	-10.6848
▁Implement	-10.685
Local	-10.6855
能	-10.686
▁civil	-10.6861
ک	-10.6863
▁Luciana	-10.6863
▁relentless	-10.6863
▁Kingdom	-10.6863
Location	-10.6863
educate	-10.6865
▁halfling	-10.6868
desc	-10.6887
▁carry	-10.6896
▁struggling	-10.6897
▁Support	-10.6897
▁spiritual	-10.69
▁chair	-10.6903
From	-10.6906
Generati	-10.692
|}{	-10.6921
Collection	-10.6932
▁experiencing	-10.6932
▁Prince	-10.6932
▁FORMAT	-10.6932
▁crack	-10.6932
▁North	-10.6934
Drag	-10.6939
auto	-10.6941
2023	-10.6954
▁Mu	-10.696
▁Trans	-10.6961
ο	-10.6966
▁extraordinary	-10.6966
▁innocence	-10.6966
Reference	-10.6966
▁investigate	-10.6966
▁leadership	-10.6969
▁expectations	-10.697
▁attraction	-10.6976
Build	-10.6977
分	-10.6997
2017	-10.6999
ł	-10.7
ع	-10.7001
▁Install	-10.7001
▁applied	-10.7001
▁bathroom	-10.7001
▁benefit	-10.7005
▁alien	-10.7009
ку	-10.7014
▁Other	-10.7014
packet	-10.7017
sync	-10.7017
__(	-10.7021
▁urinary	-10.7036
▁Batman	-10.7036
▁chainring	-10.7039
▁unlock	-10.7056
▁Russian	-10.7056
пи	-10.7064
地	-10.7069
CLASSIC	-10.7071
▁fennec	-10.7071
▁symptoms	-10.7071
▁Avoid	-10.7071
▁regain	-10.7071
▁wealth	-10.7071
Format	-10.7072
Here	-10.7088
将	-10.7104
▁Dedalus	-10.7106
▁girlfriend	-10.7106
Which	-10.7106
▁robot	-10.7106
wah	-10.7108
▁knight	-10.7114
▁Master	-10.7117
func	-10.7119
▁pale	-10.7122
New	-10.7123
▁swear	-10.7128
可以	-10.714
▁prince	-10.7141
▁restaurant	-10.7141
▁swallow	-10.7141
▁defense	-10.7141
▁racing	-10.7142
▁habit	-10.7145
▁officer	-10.7148
▁zone	-10.7149
children	-10.7159
▁stern	-10.7161
▁compare	-10.7163
firm	-10.7174
╝	-10.7175
▁intimacy	-10.7176
▁gradually	-10.7176
∇^2	-10.7177
▁hurt	-10.7177
▁zc	-10.7195
▁Park	-10.7197
▁insight	-10.7199
-----------	-10.7209
υ	-10.7211
▁Morocco	-10.7212
▁apartment	-10.7212
Operation	-10.7213
▁managing	-10.7219
▁Liz	-10.7225
▁wishes	-10.7243
可	-10.7245
▁April	-10.7247
▁entrance	-10.7247
▁improving	-10.7247
▁passenger	-10.7247
▁coffee	-10.7247
▁honor	-10.7248
▁fuel	-10.7249
▁Finn	-10.7249
Pick	-10.7249
▁filename	-10.7253
Character	-10.7307
buffer	-10.731
器	-10.7316
▁nervously	-10.7319
▁Vaughn	-10.7319
▁pulse	-10.732
fold	-10.7344
sneaker	-10.7352
▁Analysis	-10.7355
▁cognitive	-10.7355
▁climb	-10.7355
▁speaker	-10.7356
199	-10.7359
▁canvas	-10.736
▁funny	-10.7363
▁hotel	-10.737
related	-10.7381
▁Continuous	-10.7391
▁contemporary	-10.7391
▁earlier	-10.7391
→	-10.7391
Children	-10.7391
Help	-10.7395
Insert	-10.7396
▁interview	-10.7397
root	-10.7408
▁tower	-10.7419
ollPollingWorker	-10.7427
Indicator	-10.7427
▁describing	-10.7427
▁intoxicating	-10.7427
▁dancing	-10.7427
▁BASE	-10.7427
▁Grand	-10.7435
▁origin	-10.7436
▁unlike	-10.7438
folder	-10.745
screen	-10.7456
▁gone	-10.7457
gotten	-10.7459
Н	-10.7464
▁swift	-10.7464
Info	-10.7464
▁coefficient	-10.7465
Canvas	-10.7466
个	-10.7498
▁Eurocentric	-10.75
▁REZA	-10.75
▁economy	-10.75
▁mischief	-10.75
▁syntax	-10.75
▁dignity	-10.75
Explain	-10.75
▁cream	-10.75
▁located	-10.75
▁earn	-10.7503
xml	-10.7506
Ref	-10.7512
status	-10.7532
access	-10.7534
▁EXAMPLE	-10.7537
▁easier	-10.7537
ANONYMIZE	-10.7537
▁worse	-10.7537
gress	-10.7563
し	-10.7565
null	-10.7572
▁coat	-10.7572
▁bore	-10.7572
▁polished	-10.7573
▁showcase	-10.7577
csv	-10.7586
▁undergo	-10.7587
Parent	-10.7593
▁authority	-10.7598
▁Yet	-10.7602
publish	-10.761
▁feminist	-10.761
▁intervention	-10.761
▁Management	-10.761
▁ocean	-10.761
▁declar	-10.7617
Debug	-10.7625
い	-10.7642
▁Pokémon	-10.7647
▁Primrose	-10.7647
▁afraid	-10.7647
▁digestion	-10.7647
▁nuanced	-10.7647
ITY	-10.7648
▁bath	-10.7649
▁tailor	-10.7649
▁divide	-10.765
▁PER	-10.7651
[3]	-10.7658
tree	-10.7658
сп	-10.7664
ий	-10.7674
Float	-10.7684
作	-10.7684
▁Website	-10.7685
▁corrupt	-10.7685
▁sarcastic	-10.7685
▁при	-10.7685
▁sector	-10.7685
▁mobile	-10.7685
▁tube	-10.7689
▁sparkle	-10.7692
▁outfit	-10.77
▁Review	-10.7705
▁kisses	-10.7709
▁Walmart	-10.7722
▁Footmistress	-10.7722
▁toddler	-10.7722
▁minimize	-10.7722
Instance	-10.7722
easing	-10.7723
▁divine	-10.7723
▁frequently	-10.7747
▁discomfort	-10.7759
▁afternoon	-10.7759
▁grey	-10.776
Class	-10.7762
cookie	-10.7766
Server	-10.7766
solve	-10.7777
That	-10.7778
ую	-10.7779
Factory	-10.7782
▁manipulation	-10.7785
compose	-10.7789
getElementById	-10.7797
JAILBREAK	-10.7797
▁recognition	-10.7797
▁applicable	-10.7797
▁deepest	-10.7798
▁burst	-10.7798
▁South	-10.7799
▁Super	-10.7799
▁Maybe	-10.78
ubuntu	-10.78
▁JLabel	-10.7802
▁interaction	-10.7814
▁acid	-10.782
reference	-10.783
如	-10.7833
ャ	-10.7834
▁Ultimate	-10.7835
▁Althiriel	-10.7835
▁Lizzie	-10.7835
▁excellent	-10.7835
▁manufacturing	-10.7835
▁delicious	-10.7835
▁worship	-10.7835
▁milk	-10.7836
execute	-10.784
shift	-10.784
▁stopping	-10.7841
control	-10.7847
▁shade	-10.7859
▁Customer	-10.7873
▁Primoris	-10.7873
▁REMEMBER	-10.7873
▁imagination	-10.7873
▁barrier	-10.7873
trans	-10.7873
playerHands	-10.7874
▁Hadith	-10.7874
▁browser	-10.7874
black	-10.7884
000000	-10.7891
▁Base	-10.7902
bookmarklet	-10.7911
ف	-10.7911
▁communities	-10.7911
▁infiltrate	-10.7911
▁champion	-10.7911
З	-10.7911
▁heritage	-10.7911
▁instant	-10.7912
blank	-10.7912
sensor	-10.7915
▁subtle	-10.7915
Python	-10.7917
▁coordinat	-10.793
freq	-10.7935
impl	-10.7941
▁Take	-10.7948
▁rose	-10.7948
Adapter	-10.7949
К	-10.7949
▁negotiation	-10.7949
▁cluster	-10.7949
▁prioritize	-10.7949
▁pipe	-10.7956
reflection	-10.7964
▁African	-10.7966
ugging	-10.7978
入	-10.7986
ま	-10.7986
Microsoft	-10.7987
▁fundamental	-10.7987
▁responsibility	-10.7987
▁societal	-10.7987
▁neural	-10.7987
▁operate	-10.7987
Remember	-10.7997
optimizer	-10.8
▁flowers	-10.8005
▁Dark	-10.8008
Builder	-10.8016
▁Helen	-10.8017
不	-10.8024
▁SHOULD	-10.8026
▁murmur	-10.8026
Answer	-10.8026
rail	-10.8061
输	-10.8064
▁squeezing	-10.8064
▁victory	-10.8064
▁credit	-10.8064
▁Jerry	-10.8065
▁accidentally	-10.807
▁Cost	-10.8072
600	-10.8073
insert	-10.8078
▁iron	-10.8092
▁transport	-10.8099
Container	-10.8103
▁comparison	-10.8103
▁introduction	-10.8103
▁libraries	-10.8103
▁treasure	-10.8103
▁probability	-10.8103
▁trauma	-10.8103
▁optimal	-10.8104
Happy	-10.8105
obj	-10.8106
Sorry	-10.8111
▁keyboard	-10.8112
▁approximately	-10.812
????	-10.8125
▁justify	-10.813
▁emerge	-10.8132
▁dramatic	-10.8142
▁thorough	-10.8142
▁orgasm	-10.8142
▁religion	-10.8142
▁scream	-10.8142
▁stuff	-10.8142
▁gym	-10.8143
▁tiny	-10.8144
▁recommendations	-10.8145
▁Team	-10.815
▁profound	-10.8181
▁empathy	-10.8181
ё	-10.8181
▁EVEN	-10.8181
▁shaping	-10.8181
Subtask	-10.8185
▁complexities	-10.8192
▁greg	-10.8196
出	-10.8219
Space	-10.822
▁dedicated	-10.822
▁exposure	-10.822
▁muscular	-10.822
▁ritual	-10.822
▁weaknesses	-10.822
▁assignment	-10.822
Access	-10.822
тся	-10.8221
Entry	-10.8222
▁collaborat	-10.824
▁photograph	-10.8244
={{	-10.8245
database	-10.8246
▁destroy	-10.8259
▁survey	-10.8259
▁velvet	-10.8259
Timestamp	-10.826
▁limbs	-10.826
▁SCP	-10.826
▁agreement	-10.826
||}	-10.8266
▁OUT	-10.8267
▁hoping	-10.8274
▁Gear	-10.8275
▁choke	-10.8282
▁operator	-10.8299
▁Maionareta	-10.8299
▁summarize	-10.8299
▁survive	-10.8299
▁surprising	-10.8299
▁uncover	-10.8299
▁flame	-10.83
▁serving	-10.8311
▁regime	-10.8324
▁measurement	-10.833
到	-10.8337
Script	-10.8339
▁WORD	-10.8339
Transaction	-10.8344
▁roleplay	-10.8348
▁winter	-10.8355
▁steam	-10.8359
▁Khloe	-10.8379
▁guilt	-10.8379
▁expertise	-10.8381
dependent	-10.8381
▁failure	-10.8382
▁peaceful	-10.8383
▁expressive	-10.8395
▁prose	-10.8417
▁awkward	-10.8419
▁discipline	-10.8419
▁absurd	-10.8419
С	-10.8419
▁arousal	-10.8419
▁disgust	-10.8419
▁Throne	-10.8419
▁expense	-10.8419
TextView	-10.8426
ancy	-10.8443
compile	-10.8455
Continue	-10.8459
▁subsequent	-10.8459
▁preparation	-10.8459
▁pygame	-10.8459
Media	-10.8463
▁interval	-10.8465
▁0.2	-10.8474
▁Windows	-10.8477
ubmissive	-10.8487
▁loyal	-10.8497
instagram	-10.8499
▁anxiety	-10.8499
▁universal	-10.8499
▁specify	-10.8499
gravity	-10.85
pandas	-10.8503
TION	-10.8507
▁reclaim	-10.8508
Drive	-10.8511
▁club	-10.8518
▁Two	-10.8522
service	-10.8536
▁ACCENT	-10.854
▁degradation	-10.854
▁sissy	-10.854
▁kinky	-10.854
▁eliminat	-10.854
▁shatter	-10.854
▁Throughout	-10.8545
dialog	-10.8546
▁'''	-10.8564
▁Like	-10.8565
▁occasional	-10.8577
خ	-10.858
▁BamHI	-10.858
	-10.858
▁memorable	-10.858
ú	-10.858
▁incident	-10.858
Picture	-10.8581
▁slope	-10.8581
▁editing	-10.8581
して	-10.8616
вер	-10.8618
sleep	-10.8619
Welcome	-10.8621
▁Monitor	-10.8621
▁genuine	-10.8621
▁Vietnam	-10.8621
rinkle	-10.8621
▁distract	-10.8622
▁wore	-10.8624
Now	-10.864
Area	-10.8647
constraint	-10.8651
·	-10.8662
contamination	-10.8662
▁incorporating	-10.8662
▁dominance	-10.8662
▁climate	-10.8662
###	-10.8662
▁primal	-10.8662
▁evaluation	-10.8665
▁occurred	-10.8667
Btn	-10.8667
▁Cafonian	-10.8671
123	-10.8672
DataFrame	-10.8674
▁irre	-10.8679
▁dye	-10.8688
learn	-10.8699
ι	-10.8703
▁aesthetic	-10.8703
▁categories	-10.8703
▁fragment	-10.8703
▁skirt	-10.8703
▁unparalleled	-10.8703
▁Information	-10.8703
▁Vegeta	-10.8703
▁fought	-10.8703
assembl	-10.8709
▁Search	-10.8711
▁trick	-10.8716
▁America	-10.872
stats	-10.8738
▁RESPOND	-10.8744
▁cautious	-10.8744
М	-10.8744
▁amazing	-10.8745
▁doubt	-10.8745
Application	-10.8745
▁sustainability	-10.8746
▁mock	-10.8781
custom	-10.8783
bottom	-10.8783
▁favor	-10.8784
▁emergency	-10.8786
▁penalty	-10.8786
▁evolve	-10.8786
▁prison	-10.8786
▁lick	-10.8787
▁mercy	-10.8787
▁heaven	-10.8787
Watch	-10.8788
paste	-10.8791
▁faithful	-10.8809
▁LIKE	-10.8828
▁creativity	-10.8828
▁evolution	-10.8828
▁losing	-10.8838
Receiving	-10.8869
▁Celestria	-10.8869
▁Variation	-10.8869
▁striking	-10.887
▁testament	-10.887
▁marvel	-10.887
Bounds	-10.8871
Case	-10.8872
▁shooting	-10.8873
▁unconscious	-10.8881
▁witch	-10.8882
▁Russia	-10.8887
known	-10.889
ñ	-10.8911
▁Similar	-10.8911
▁salacious	-10.8911
Female	-10.8911
▁Messier	-10.8911
▁Network	-10.8912
▁scheme	-10.8912
▁distant	-10.8912
Piece	-10.8912
▁norms	-10.8913
▁meters	-10.8917
▁constraints	-10.8923
Slide	-10.8929
▁weigh	-10.8931
▁detection	-10.8944
时	-10.8951
Δ	-10.8954
▁apologize	-10.8954
▁cleavage	-10.8954
▁envelop	-10.8954
▁gloves	-10.8954
▁mischievous	-10.8954
▁famous	-10.8954
▁shoes	-10.8954
chunk	-10.8955
sexual	-10.8957
する	-10.899
▁British	-10.8996
▁People	-10.8996
▁Pianitchi	-10.8996
▁enormous	-10.8996
▁remarkable	-10.8996
Would	-10.8996
▁violate	-10.8996
▁Vega	-10.8997
▁initiat	-10.8998
▁punishment	-10.9002
▁genetic	-10.9003
Fail	-10.9004
▁Thus	-10.9014
▁villain	-10.9037
▁nightmare	-10.9039
▁honest	-10.9039
▁из	-10.9048
▁fitness	-10.9052
bytes	-10.9063
▁panic	-10.9063
▁CAROLINE	-10.9081
▁eigenvalue	-10.9081
▁facilitate	-10.9081
▁STEP	-10.9081
▁welcome	-10.9081
▁framing	-10.9081
▁loving	-10.9082
|(‘	-10.9082
▁lung	-10.9091
▁slap	-10.9107
▁outstanding	-10.9124
▁convention	-10.9124
▁liquid	-10.9124
▁exotic	-10.9124
▁minimal	-10.9124
▁proposed	-10.9124
▁guest	-10.914
Trade	-10.9146
▁Azeneth	-10.9167
analytics	-10.9167
▁instinct	-10.9167
ȴ	-10.9167
▁wavy	-10.9167
▁trading	-10.9167
▁Address	-10.9167
▁mystery	-10.9168
▁URL	-10.9168
raising	-10.9169
mutex	-10.9172
ChatGPT	-10.9178
fyahrl	-10.9211
▁disappoint	-10.9211
SELECT	-10.9211
Ивойло	-10.9211
камал	-10.9211
▁hazard	-10.9211
▁triumph	-10.9211
Student	-10.9211
velocity	-10.9211
▁afford	-10.9211
yarla	-10.9211
▁eerie	-10.9211
Video	-10.9212
▁visitors	-10.9212
фя	-10.9214
▁House	-10.9215
Camping	-10.9219
▁cutting	-10.9221
which	-10.9223
white	-10.9223
sql	-10.9227
件	-10.9253
▁Reflect	-10.9254
▁Writing	-10.9254
▁Nightwing	-10.9254
▁boost	-10.9254
▁inherent	-10.9254
▁extent	-10.9255
Break	-10.9257
▁ruin	-10.926
▁wire	-10.9274
Taker	-10.9275
▁threshold	-10.9298
▁broader	-10.9298
▁mechanism	-10.9298
▁gleam	-10.9298
▁orange	-10.9302
Critic	-10.9303
▁particle	-10.9305
false	-10.9313
▁interactive	-10.9317
Order	-10.9336
же	-10.9337
ение	-10.934
addEventListener	-10.9342
▁derivative	-10.9342
▁disappear	-10.9342
▁enzyme	-10.9342
▁squirm	-10.9342
▁unnatural	-10.9342
▁fleet	-10.9342
▁defiant	-10.9342
▁exceptional	-10.9342
▁healing	-10.9356
Port	-10.9377
解	-10.9385
ز	-10.9386
▁examination	-10.9386
▁incontinence	-10.9386
▁opponent	-10.9386
▁gesture	-10.9386
▁Green	-10.9388
""/""	-10.9401
▁protest	-10.9402
describe	-10.9404
−	-10.9415
す	-10.9427
Background	-10.943
▁puzzle	-10.943
▁marriage	-10.943
▁narration	-10.943
▁thief	-10.943
▁carried	-10.943
▁restriction	-10.9441
hello	-10.9452
▁Engineer	-10.9474
▁International	-10.9474
▁emphasis	-10.9474
▁climax	-10.9474
▁cheese	-10.9474
▁injury	-10.9474
▁translation	-10.9474
▁venture	-10.9475
▁impression	-10.9475
▁elven	-10.9484
▁Java	-10.9485
Modern	-10.9486
charge	-10.9486
scrape	-10.9495
Check	-10.9496
scape	-10.951
==============*/	-10.9519
Fellatio	-10.9519
tiebreaker	-10.9519
▁confines	-10.9519
▁enigmatic	-10.9519
▁resilience	-10.9519
▁rutkowski	-10.9519
▁WHERE	-10.9519
▁eyebrow	-10.9519
▁jeans	-10.9519
▁Together	-10.9519
▁drift	-10.9519
▁concise	-10.9519
▁phase	-10.952
▁literal	-10.952
▁identified	-10.9521
Match	-10.9526
▁Pascal	-10.9536
人	-10.9562
▁Victoria	-10.9564
▁facial	-10.9564
па	-10.9565
Session	-10.9567
firebase	-10.9572
▁beloved	-10.9609
ент	-10.9626
child	-10.9637
concat	-10.9651
FORMA	-10.9654
ق	-10.9654
▁mechanics	-10.9654
▁NIGHT	-10.9654
▁decrease	-10.9654
▁seamless	-10.9654
▁<!--	-10.9654
ʒ	-10.9654
▁UCAR	-10.9654
▁Souls	-10.9656
:}|	-10.9663
save	-10.967
Drop	-10.967
including	-10.9682
price	-10.969
▁critic	-10.969
▁integral	-10.97
Capacity	-10.97
Snapshot	-10.97
▁feather	-10.97
▁wrote	-10.97
▁Offer	-10.97
Level	-10.9702
▁confusion	-10.9703
▁PRI	-10.9708
▁alley	-10.971
▁neuro	-10.9711
▁preserv	-10.9712
0.5	-10.9724
observ	-10.9739
referred	-10.9741
对	-10.9744
Dynamic	-10.9745
▁dedication	-10.9745
Perhaps	-10.9745
▁trapped	-10.9745
indicator	-10.9745
▁artstation	-10.9745
▁murder	-10.9745
bucket	-10.9746
transformedImage	-10.9746
Okay	-10.9747
Mouse	-10.9771
normal	-10.9777
て	-10.9786
果	-10.979
▁Muslim	-10.9791
▁abandoned	-10.9791
▁diversity	-10.9791
▁wisdom	-10.9791
▁blush	-10.9791
▁Voice	-10.9791
▁STATE	-10.9791
▁White	-10.9791
▁desert	-10.9792
▁obey	-10.9792
Material	-10.9792
recipe	-10.9795
lutter	-10.9809
▁mouse	-10.9827
な	-10.9833
定	-10.9836
э	-10.9837
Coords	-10.9837
▁Altair	-10.9837
▁complain	-10.9838
decode	-10.9843
▁daring	-10.9847
▁indeed	-10.9848
fusion	-10.9852
▁captivate	-10.9884
▁endeavors	-10.9884
▁exhibit	-10.9884
▁glasses	-10.9884
▁vampiric	-10.9884
▁simulation	-10.9884
Email	-10.9885
alpha	-10.9886
delta	-10.9896
▁happiness	-10.993
▁sarcasm	-10.993
▁uncomfortable	-10.993
▁miniature	-10.993
jpg	-10.993
▁forecast	-10.993
▁slipped	-10.9932
detected	-10.9933
shiny	-10.9939
safe	-10.9952
American	-10.9969
False	-10.9969
▁Mireille	-10.9977
▁Travel	-10.9977
▁OleDbCommand	-10.9977
▁teenage	-10.9977
Could	-10.9981
▁cozy	-10.9984
Exec	-11.0006
criticize	-11.0014
font	-11.002
ē	-11.0023
ā	-11.0023
Analytics	-11.0024
±	-11.0024
è	-11.0024
▁Brazil	-11.0024
▁breeze	-11.0024
▁forbidden	-11.0024
▁voluptuous	-11.0024
▁MessageBox	-11.0024
▁Akura	-11.0024
▁iconic	-11.0025
▁Return	-11.0033
HOSE	-11.0033
Invalid	-11.0033
sharp	-11.0071
▁Acquired	-11.0071
▁diplomacy	-11.0071
▁frustration	-11.0071
▁substance	-11.0071
▁Ariella	-11.0071
▁streak	-11.0071
▁blind	-11.0071
▁urban	-11.0072
стро	-11.0072
▁Water	-11.0072
▁debate	-11.0072
▁entertainment	-11.0075
▁Jaret	-11.0075
Clear	-11.0082
列	-11.011
▁Language	-11.0118
▁Mistress	-11.0118
▁critique	-11.0118
▁linguistic	-11.0118
▁obstacle	-11.0118
ssociation	-11.0118
▁Identify	-11.0118
▁artgerm	-11.0118
▁Lilith	-11.0118
▁binary	-11.0119
▁descend	-11.0119
father	-11.012
▁stopped	-11.0123
сь	-11.0161
ï	-11.0166
▁ADOQuery	-11.0166
thumbnail	-11.0166
▁perturbations	-11.0166
▁politics	-11.0166
▁virgin	-11.0166
▁breathtaking	-11.0166
▁slightest	-11.0166
▁Battle	-11.0166
▁seduction	-11.0166
▁wheel	-11.0166
▁Bergen	-11.0166
▁delightful	-11.0167
▁arrange	-11.0167
Ethical	-11.0169
pretending	-11.021
程	-11.0212
机	-11.0212
▁metaphor	-11.0214
Screen	-11.0214
▁sensory	-11.0215
▁villainess	-11.0215
Tell	-11.0217
placing	-11.0218
▁ankle	-11.0218
short	-11.024
▁immersive	-11.0262
▁infrastructure	-11.0262
▁integration	-11.0262
▁rooftop	-11.0262
▁collapse	-11.0262
▁evident	-11.0262
▁burning	-11.0262
▁plump	-11.0262
▁tutor	-11.0262
javascript	-11.0264
shared	-11.0276
▁frequent	-11.0278
dimensional	-11.0301
其	-11.0309
public	-11.031
Response	-11.031
▁satisfied	-11.031
VALUE	-11.031
▁Discuss	-11.031
deploy	-11.031
▁Human	-11.031
▁swirl	-11.0311
▁censorship	-11.0314
▁humiliating	-11.0359
▁pursue	-11.0359
Module	-11.0359
▁bedroom	-11.0361
project	-11.0379
Body	-11.0384
ة	-11.0407
Understood	-11.0407
▁although	-11.0407
▁sophisticated	-11.0407
▁suspicious	-11.0407
▁retrieve	-11.0407
▁reliable	-11.0408
▁braid	-11.0408
▁terminal	-11.0408
▁Bugs	-11.0409
▁endorse	-11.0409
▁incest	-11.0413
mobil	-11.0414
proxy	-11.0414
regulat	-11.0417
riving	-11.0421
▁merge	-11.0428
их	-11.0437
过	-11.0454
▁crimson	-11.0456
▁electrophoresis	-11.0456
▁embarrassed	-11.0456
▁guarantee	-11.0456
▁destruction	-11.0456
▁preparing	-11.0457
▁admire	-11.0457
▁Korea	-11.0457
▁anymore	-11.0457
▁separat	-11.0458
▁accentuat	-11.0458
▁shopping	-11.0459
Factor	-11.0477
▁semina	-11.0482
▁Guide	-11.0489
avcodec	-11.0495
间	-11.0502
は	-11.0503
计	-11.0504
▁enthusiast	-11.0506
▁Understand	-11.0506
▁circumstances	-11.0506
▁cherish	-11.0506
▁serene	-11.0506
▁conceal	-11.0506
Trigger	-11.0506
▁pounding	-11.0506
▁veins	-11.0507
▁civilization	-11.0508
▁captive	-11.0508
▁tourist	-11.0509
▁underlying	-11.051
centric	-11.0514
▁boss	-11.0516
る	-11.0547
slice	-11.0553
后	-11.0554
▁contradict	-11.0555
▁enslave	-11.0555
▁possibly	-11.0555
▁recruit	-11.0555
▁statistical	-11.0555
▁Business	-11.0555
▁Juicy	-11.0555
▁modified	-11.0555
▁conquer	-11.0556
▁HERE	-11.0556
▁hiding	-11.0557
indices	-11.0558
ş	-11.0605
▁Machiavelli	-11.0605
▁aggressive	-11.0605
▁celebrate	-11.0605
▁mathematical	-11.0605
▁operating	-11.0605
▁dataGridView	-11.0605
▁restricted	-11.0605
▁companion	-11.0605
▁initiatives	-11.0605
▁gown	-11.0605
▁mild	-11.0606
▁instruction	-11.0611
▁skip	-11.0611
▁compute	-11.0646
identifi	-11.0653
▁predicament	-11.0655
▁repetitive	-11.0655
▁dinner	-11.0655
▁suspect	-11.0655
▁parsed	-11.0661
▁glad	-11.0665
High	-11.0671
▁customize	-11.0677
Touch	-11.069
した	-11.0695
コード	-11.0705
▁dripping	-11.0705
▁equilibrium	-11.0705
▁precision	-11.0705
	-11.0705
SECOND	-11.0705
ã	-11.0705
▁Orientalism	-11.0705
▁confused	-11.0705
▁humidity	-11.0705
▁Little	-11.0705
▁David	-11.0705
▁prospect	-11.0705
ход	-11.0705
▁crew	-11.0706
▁translated	-11.0709
ان	-11.071
solution	-11.0715
insights	-11.0723
▁invite	-11.0735
▁drag	-11.0753
▁Amaunator	-11.0756
▁executive	-11.0756
inspiring	-11.0756
▁gradient	-11.0756
▁editor	-11.0756
▁differentiat	-11.0771
ние	-11.0786
▁uncertain	-11.0804
CONSTRAINT	-11.0806
▁analyzing	-11.0806
▁butterfly	-11.0806
▁luxurious	-11.0806
▁tattoo	-11.0806
Should	-11.0807
▁Basil	-11.0807
▁SAY	-11.0807
イ	-11.0849
▁ре	-11.0853
▁Daenerys	-11.0858
▁equipped	-11.0858
▁awaken	-11.0858
▁proportion	-11.0858
▁lawyer	-11.0858
[-1]	-11.0858
▁uncertainty	-11.086
▁devis	-11.0862
▁income	-11.0865
Progress	-11.0875
合	-11.0902
自	-11.0904
并	-11.0907
Sample	-11.0908
代码	-11.0909
Ж	-11.0909
▁receiving	-11.0909
▁ruthless	-11.0909
▁succumb	-11.0909
▁unleash	-11.0909
▁ownership	-11.0909
interrupt	-11.0909
▁mutual	-11.0909
▁restoring	-11.091
▁facing	-11.091
▁гистограммы	-11.091
▁Rust	-11.0912
▁paid	-11.0914
▁Lord	-11.0917
horizontal	-11.0928
▁overwhelm	-11.0934
cultural	-11.0934
▁horizon	-11.0941
▁differ	-11.0952
本	-11.0957
れ	-11.0958
实	-11.0959
生	-11.096
▁slid	-11.096
σ	-11.096
▁MARCEL	-11.096
▁lecture	-11.096
пре	-11.096
Flush	-11.0961
▁temptation	-11.0961
▁reduction	-11.0963
Signal	-11.0964
Book	-11.0994
要	-11.101
▁Citizen	-11.1012
▁Australia	-11.1012
▁Practice	-11.1012
▁RULES	-11.1012
▁Drelder	-11.1012
▁JTextField	-11.1012
▁generator	-11.1012
▁knock	-11.1012
ţ	-11.1012
▁affair	-11.1012
Reason	-11.1016
Account	-11.1016
proved	-11.1034
video	-11.1041
worth	-11.1043
▁ANNELIESE	-11.1064
▁surviving	-11.1064
▁titillating	-11.1064
▁comrades	-11.1064
▁emerging	-11.1064
▁supple	-11.1064
▁fetish	-11.1064
▁Visual	-11.1064
▁wrapping	-11.1064
github	-11.1065
▁код	-11.1074
First	-11.1095
▁socio	-11.1096
front	-11.11
Join	-11.11
Gems	-11.1103
AGAIN	-11.1117
▁glimpse	-11.1117
َ	-11.1117
▁clench	-11.1117
▁harsh	-11.1117
▁glint	-11.1118
▁nerve	-11.1119
▁Music	-11.1133
▁breast	-11.1141
▁canoe	-11.1148
▁govern	-11.1161
值	-11.1168
正	-11.1169
็	-11.1169
DashboardForm	-11.1169
▁Encourage	-11.1169
▁fascinating	-11.1169
▁inevitable	-11.1169
▁robust	-11.1169
Humidity	-11.1169
▁amusement	-11.1169
Special	-11.1169
§	-11.1169
▁Edward	-11.1169
▁rotation	-11.1169
▁acquire	-11.117
▁exceed	-11.117
▁basis	-11.117
Legend	-11.1171
oxi	-11.1173
paced	-11.1205
子	-11.122
Э	-11.1222
▁Journal	-11.1222
▁absorb	-11.1222
▁circuit	-11.1222
▁neither	-11.1222
Moisture	-11.1222
▁anthro	-11.1223
▁enhanc	-11.1232
制	-11.1271
来	-11.1274
▁shudder	-11.1275
▁Consequently	-11.1275
rwxrwx	-11.1275
▁formidable	-11.1275
⟦	-11.1275
▁advise	-11.1276
▁verbal	-11.1276
▁weird	-11.1278
Speed	-11.1314
ト	-11.132
്	-11.1329
▁maintenance	-11.1329
Т	-11.1329
▁Curious	-11.1329
▁insurance	-11.1329
▁lush	-11.133
▁electronic	-11.1331
▁embrac	-11.1335
debug	-11.1341
▁demonstrat	-11.1342
▁broke	-11.1359
food	-11.1371
理	-11.1381
▁яркост	-11.1383
▁hesitant	-11.1383
▁ArrayList	-11.1383
▁showcas	-11.1384
▁observation	-11.1384
▁GameObject	-11.1385
▁repair	-11.1386
Bank	-11.1399
▁Africa	-11.1412
Scale	-11.1429
数据	-11.1436
▁independence	-11.1437
▁stakeholders	-11.1437
▁technological	-11.1437
▁territory	-11.1437
▁packaging	-11.1437
▁Duchy	-11.1437
▁drew	-11.1437
mainCont	-11.1438
Header	-11.1444
SOURCES	-11.1445
defeated	-11.1466
图	-11.1489
表	-11.149
Active	-11.149
▁Excited	-11.1491
▁autonomy	-11.1491
ฏ	-11.1491
▁abstract	-11.1491
▁Sigma	-11.1491
PAY	-11.1492
▁EXT	-11.1495
btn	-11.1503
▁distinguish	-11.1526
sequence	-11.1538
World	-11.1539
た	-11.1545
ك	-11.1546
▁COMMAND	-11.1546
▁ecosystem	-11.1546
ζ	-11.1546
▁empire	-11.1546
▁General	-11.1546
permission	-11.1547
▁labor	-11.1548
▁Aunt	-11.1548
Axis	-11.155
▁recogniz	-11.1555
Parameter	-11.1586
通	-11.1597
▁Summary	-11.1601
▁Symbol	-11.1601
▁regulatory	-11.1601
▁terrible	-11.1601
▁Public	-11.1601
“£⇨	-11.1601
▁precise	-11.1601
▁sqlite	-11.1601
▁JavaScript	-11.1601
▁advancements	-11.1603
▁Rule	-11.1609
▁abuse	-11.1638
thinking	-11.1653
ACCESS	-11.1656
▁Amazon	-11.1656
▁crystal	-11.1656
▁commission	-11.1656
▁Constructive	-11.1656
Ṭ	-11.1656
▁hesitation	-11.1656
|};>	-11.1656
▁announce	-11.1656
▁override	-11.1656
▁что	-11.1656
▁modification	-11.1656
▁Belial	-11.1656
▁tracing	-11.1656
▁York	-11.1656
▁inviting	-11.1656
▁Lizzy	-11.1656
▁terrain	-11.1656
▁slut	-11.1657
▁lurk	-11.1657
▁sentient	-11.1658
foot	-11.1664
effective	-11.1706
TOKEN	-11.1711
▁ethereal	-11.1711
▁infamous	-11.1711
▁opposite	-11.1711
▁sensitivity	-11.1711
▁Future	-11.1711
▁Again	-11.1712
Adidas	-11.1712
▁CSS	-11.1713
▁bull	-11.1713
▁crop	-11.1713
Param	-11.1722
обр	-11.1737
▁motivat	-11.1745
Verse	-11.1759
▁RESPONSE	-11.1767
▁SourceWorksheet	-11.1767
▁illuminate	-11.1767
▁imaginative	-11.1767
▁psychology	-11.1767
▁Imperial	-11.1767
▁Nicole	-11.1767
▁husband	-11.1767
▁immerse	-11.1767
induced	-11.1767
▁closing	-11.1768
▁ticket	-11.1768
▁feud	-11.1768
▁bench	-11.1772
digit	-11.1775
加	-11.1823
Ÿ	-11.1823
▁EVALUATION	-11.1823
▁arrival	-11.1823
▁definitely	-11.1823
▁eternity	-11.1823
Threshold	-11.1823
▁possibility	-11.1823
▁paradigm	-11.1824
consuming	-11.1824
▁inspect	-11.1841
Store	-11.1848
workflow	-11.1851
面	-11.1879
▁Islamic	-11.188
▁compelling	-11.188
▁ALTER	-11.188
▁Android	-11.188
▁devil	-11.188
▁dirty	-11.188
▁entrepreneur	-11.1901
ville	-11.1926
▁opinion	-11.1934
你	-11.1937
Bookmarklet	-11.1937
SIZE	-11.1937
ования	-11.1937
▁tremble	-11.1937
onsensual	-11.1937
▁finance	-11.1937
▁carbon	-11.1937
▁Improved	-11.1938
Candle	-11.1942
▁ethic	-11.1951
▁fiction	-11.1974
Default	-11.1994
▁Caelira	-11.1994
▁chiseled	-11.1994
▁crippled	-11.1994
▁revenue	-11.1994
▁superhero	-11.1994
Р	-11.1994
thriller	-11.1994
Typical	-11.1994
paintComponent	-11.1994
▁pleasant	-11.1994
▁naive	-11.1998
Void	-11.1998
Suit	-11.2038
Š	-11.2051
▁January	-11.2051
▁Relaxed	-11.2051
▁desperation	-11.2051
▁redemption	-11.2051
▁Exclusive	-11.2051
▁impressed	-11.2051
Activity	-11.2051
▁parallel	-11.2051
▁worldwide	-11.2051
▁Albert	-11.2052
▁crave	-11.2053
▁determin	-11.206
creation	-11.2095
目	-11.2096
▁assumption	-11.2109
▁cascading	-11.2109
▁conference	-11.2109
▁glisten	-11.2109
▁temporary	-11.2109
digested	-11.2109
▁Science	-11.2109
▁stolen	-11.2109
▁Spider	-11.2109
▁annual	-11.211
▁attire	-11.211
▁Word	-11.2112
PROMPT	-11.2167
▁ketchup	-11.2167
▁stylish	-11.2167
▁cascade	-11.2167
▁compliance	-11.2167
▁candidate	-11.2167
▁prowess	-11.2167
▁Amused	-11.2167
▁clutch	-11.2168
▁license	-11.2168
spDropdown	-11.2168
▁Otto	-11.2168
sleeve	-11.2168
▁fiber	-11.2168
grinning	-11.2176
▁resume	-11.2179
scatter	-11.2195
▁punish	-11.2218
ح	-11.2226
▁fervently	-11.2226
▁это	-11.2226
system	-11.2242
•	-11.2243
family	-11.2243
spiration	-11.2263
▁entertain	-11.2279
_______________	-11.2285
Г	-11.2285
▁Empathetic	-11.2285
▁flavor	-11.2285
▁strategist	-11.2285
▁university	-11.2285
▁unravel	-11.2285
▁consistency	-11.2285
▁optical	-11.2285
▁Career	-11.2285
▁ensnar	-11.2285
oriented	-11.2291
▁succeed	-11.2344
▁dictionary	-11.2344
▁examining	-11.2344
▁chicken	-11.2344
▁enabling	-11.2344
▁BorderLayout	-11.2344
▁gaming	-11.2345
classifier	-11.239
organized	-11.239
SubtaskModal	-11.2403
▁Socrates	-11.2403
▁chocolate	-11.2403
▁unbiased	-11.2403
▁reluctant	-11.2403
▁一种	-11.2403
Matrix	-11.2403
▁solace	-11.2403
▁enticing	-11.2404
‘-|	-11.2404
▁Present	-11.2404
assuming	-11.2409
module	-11.2427
Parse	-11.2429
togramComponent	-11.2436
girl	-11.2437
▁Angel	-11.2453
提	-11.2462
修	-11.2463
zæx	-11.2463
HOWEVER	-11.2463
▁absolutely	-11.2463
▁disagreement	-11.2463
Solution	-11.2463
文件	-11.2463
ό	-11.2463
▁whale	-11.2464
▁costume	-11.2464
▁raven	-11.2465
▁apparent	-11.2466
▁vibrat	-11.2471
像	-11.2518
ëyür	-11.2523
ølåg	-11.2523
INSERT	-11.2523
Property	-11.2523
yxý	-11.2523
А	-11.2523
▁Callahan	-11.2523
▁introducing	-11.2523
▁supernatural	-11.2523
▁symphony	-11.2523
▁Security	-11.2523
⟨	-11.2523
▁Fæt	-11.2523
▁Tasil	-11.2524
▁leak	-11.2527
Stack	-11.2541
focus	-11.2549
▁estimat	-11.2558
字	-11.2583
信息	-11.2583
captcha	-11.2584
responsive	-11.2584
▁Egypt	-11.2584
▁Experience	-11.2584
▁automatically	-11.2584
▁professor	-11.2584
▁Cloud	-11.2584
▁horny	-11.2584
Document	-11.2584
▁Attack	-11.2584
▁flickering	-11.2584
Analyze	-11.2585
▁epic	-11.2587
inventory	-11.2591
▁specifie	-11.2594
default	-11.2614
Just	-11.2614
nothing	-11.2617
Kortti	-11.2645
▁Collaborat	-11.2645
Humidifier	-11.2645
JOptionPane	-11.2645
incontinent	-11.2645
▁Bouxermon	-11.2645
▁Enjoy	-11.2645
▁accommodation	-11.2645
▁AUTHOR	-11.2645
ным	-11.2645
Password	-11.2645
▁evoke	-11.2645
▁infection	-11.2646
▁cinema	-11.2671
Turn	-11.2677
▁emphasiz	-11.2683
算	-11.2702
现	-11.2704
▁Auvrittoht	-11.2706
▁advocat	-11.2706
jailbroken	-11.2706
▁corporate	-11.2706
▁flexibility	-11.2706
▁purification	-11.2706
▁flexible	-11.2706
▁deviation	-11.2707
▁Lexa	-11.2707
Dropdown	-11.2707
▁radiat	-11.2707
▁shore	-11.2709
▁cube	-11.2715
population	-11.2741
history	-11.2742
DIR	-11.275
大	-11.2765
务	-11.2767
▁alchemist	-11.2768
▁humiliation	-11.2768
▁ridiculous	-11.2768
▁uncensored	-11.2768
▁grammar	-11.2768
▁vacation	-11.2768
▁regret	-11.2768
operative	-11.2769
▁amusing	-11.2769
▁straddl	-11.2769
▁distort	-11.277
Host	-11.2829
动	-11.2829
▁данных	-11.283
▁blouse	-11.283
ный	-11.283
▁cosmic	-11.283
ReLU	-11.283
DateTime	-11.2831
MUST	-11.287
いいね	-11.2884
开	-11.2891
ных	-11.2893
ные	-11.2893
▁Dimension	-11.2893
▁disbelief	-11.2893
▁poofy	-11.2893
persistence	-11.2893
▁storytelling	-11.2893
▁burden	-11.2893
▁Hyper	-11.2893
▁sphere	-11.2893
▁tightened	-11.2893
▁dominate	-11.2896
Spectrum	-11.2931
Ʒ	-11.2955
Ä	-11.2956
▁Diffusion	-11.2956
▁anatomy	-11.2956
ī	-11.2956
▁Author	-11.2956
▁oxygen	-11.2956
▁possibilities	-11.2956
shield	-11.2956
▁tyrant	-11.2956
▁Westeros	-11.2956
️	-11.2956
basket	-11.2956
▁truck	-11.2956
▁Curse	-11.2957
Joyce	-11.3
Output	-11.3
ら	-11.3007
类	-11.3015
设	-11.3016
▁Isabella	-11.3019
▁Kapeesh	-11.3019
▁METHODOLOGY	-11.3019
▁SKIP	-11.3019
▁alcohol	-11.3019
▁despair	-11.3019
▁stereotypes	-11.3019
▁surgical	-11.3019
IZED	-11.3019
▁melody	-11.3019
▁convince	-11.3019
▁ethnic	-11.3019
▁BIT	-11.302
▁potent	-11.3081
ʭ	-11.3082
κ	-11.3083
NDANT	-11.3083
▁Education	-11.3083
▁Pathfinder	-11.3083
▁boyfriend	-11.3083
▁brutal	-11.3083
▁statistics	-11.3083
▁tactics	-11.3083
forEach	-11.3083
▁Execute	-11.3083
▁haunting	-11.3083
▁smoke	-11.3083
▁configure	-11.3083
Patient	-11.3084
▁Visit	-11.3084
▁Psycho	-11.3123
量	-11.3143
应	-11.3144
ج	-11.3147
▁consequential	-11.3147
Anonymous	-11.3147
ص	-11.3147
Eurocentrism	-11.3147
▁embarrassing	-11.3147
▁illustrate	-11.3147
▁pivot	-11.3147
▁School	-11.3147
Shinji	-11.3147
▁ELSE	-11.3147
▁shaking	-11.3147
▁Invest	-11.3147
▁boast	-11.3148
Sleep	-11.3149
security	-11.3199
▁integrity	-11.3211
Environment	-11.3211
،	-11.3211
▁Appearance	-11.3211
▁Because	-11.3211
▁Investigator	-11.3211
▁Melisandre	-11.3211
▁Moroccan	-11.3211
▁REDU	-11.3211
▁advertising	-11.3211
▁criteria	-11.3211
▁derogatory	-11.3211
▁fascination	-11.3211
epository	-11.3211
▁racial	-11.3211
▁PLUS	-11.3211
artifact	-11.3211
▁Half	-11.3212
compassionate	-11.3216
得	-11.3271
▁compassion	-11.3272
标	-11.3276
▁«—	-11.3276
Iwoylofyarla	-11.3276
KEVIN	-11.3276
У	-11.3276
▁OBEDIEN	-11.3276
▁SIGNS	-11.3276
▁composure	-11.3276
▁kitchen	-11.3276
▁discharged	-11.3276
▁sampling	-11.3276
▁injured	-11.3276
▁Brief	-11.3276
▁confess	-11.3276
▁harmony	-11.3276
▁degraded	-11.3276
▁Louis	-11.3277
improve	-11.3288
示	-11.3341
▁Melodytchi	-11.3341
▁centuries	-11.3341
▁laboratory	-11.3341
▁indicating	-11.3341
▁productivity	-11.3341
Pattern	-11.3341
▁Dominion	-11.3341
TextChanged	-11.3342
▁Policy	-11.3342
▁precious	-11.3342
nickname	-11.3342
commerce	-11.3342
▁slang	-11.3342
▁cyber	-11.3342
▁bomb	-11.3343
▁hypnotic	-11.3407
▁Percival	-11.3407
▁TABLE	-11.3407
▁inconsistently	-11.3407
jakaja	-11.3407
▁Captured	-11.3407
▁destructive	-11.3407
▁bloom	-11.3407
▁Accent	-11.3408
▁Combine	-11.3408
▁savor	-11.3408
Unfortunately	-11.3473
▁February	-11.3473
▁achieving	-11.3473
▁calories	-11.3473
▁vocabulary	-11.3473
▁disrupt	-11.3473
▁automation	-11.3474
▁groan	-11.3474
▁edgy	-11.3474
Double	-11.3475
▁resonate	-11.3476
▁erupt	-11.3476
güm	-11.3524
与	-11.3534
进行	-11.3538
Ψ	-11.354
▁Bejita	-11.354
▁Mercutio	-11.354
▁gratitude	-11.354
▁influential	-11.354
▁majestic	-11.354
▁peculiar	-11.354
ExecuteNonQuery	-11.354
▁hyena	-11.354
▁stretched	-11.354
▁legacy	-11.354
▁Akeno	-11.354
folk	-11.3546
!==	-11.3551
化	-11.3605
需要	-11.3606
▁пере	-11.3607
▁counsel	-11.3607
▁medieval	-11.3607
edHistogram	-11.3607
▁ROOM	-11.3607
▁prominent	-11.3607
▁sermons	-11.3607
▁cartoon	-11.3607
▁darling	-11.3607
▁tragic	-11.3607
▁Shepard	-11.3608
Origin	-11.3608
▁04/1	-11.3608
▁Nigeria	-11.3637
▁drape	-11.3666
更	-11.3673
置	-11.3674
querySelector	-11.3675
▁wizard	-11.3675
▁Determine	-11.3675
▁Narrator	-11.3675
▁Schmidt	-11.3675
▁concrete	-11.3675
▁fantastic	-11.3675
iefling	-11.3675
▁Bunting	-11.3675
▁imposed	-11.3675
▁isolated	-11.3675
OUND	-11.3675
▁Self	-11.3676
method	-11.3678
collection	-11.3678
Dealer	-11.3689
referring	-11.3699
さ	-11.3742
å	-11.3743
▁Sarenrei	-11.3743
▁Studio	-11.3743
▁WAKU	-11.3743
▁competitors	-11.3743
▁irresistible	-11.3743
▁complicated	-11.3743
▁Thasil	-11.3743
Feature	-11.3746
description	-11.3748
detach	-11.3753
方法	-11.3809
该	-11.381
ô	-11.3811
octave	-11.3811
▁Celsius	-11.3811
▁antidote	-11.3811
▁bosom	-11.3811
▁futuristic	-11.3811
▁intermediary	-11.3811
▁transparency	-11.3811
▁victorious	-11.3811
▁policing	-11.3811
▁Jetul	-11.3811
▁tomorrow	-11.3812
▁contour	-11.3812
defining	-11.3812
quarter	-11.3812
▁France	-11.3812
▁Food	-11.3812
▁Compute	-11.3816
health	-11.3817
▁так	-11.3833
か	-11.3866
valuation	-11.3876
ę	-11.388
newBrightness	-11.388
▁Abilities	-11.388
▁HindIII	-11.388
▁anonymous	-11.388
▁availability	-11.388
▁currency	-11.388
▁mesmerizing	-11.388
▁Physical	-11.388
BEJITA	-11.388
▁fluffy	-11.388
▁immobiliz	-11.388
▁otherworldly	-11.388
▁bliss	-11.3881
▁mitigat	-11.3881
Url	-11.3881
violation	-11.3882
▁Julia	-11.3883
Phone	-11.3884
▁sneak	-11.3886
▁Elena	-11.3887
adventure	-11.3891
coordinate	-11.3914
nearly	-11.3927
▁WHO	-11.3943
▁BDSM	-11.395
▁Cassandra	-11.395
▁Increase	-11.395
▁Maiovareia	-11.395
▁admiration	-11.395
▁infinite	-11.395
▁judgment	-11.395
▁naughty	-11.395
▁ourselves	-11.395
▁unlimited	-11.395
≈	-11.395
nsfw	-11.395
▁crude	-11.395
Chorus	-11.3951
▁vertical	-11.3953
material	-11.3963
kissed	-11.3972
参	-11.4019
ApplianceDBLIST	-11.402
∫	-11.402
▁Alternative	-11.402
▁devastating	-11.402
▁unwilling	-11.402
▁likelihood	-11.402
▁sleek	-11.402
▁creep	-11.4021
▁Brand	-11.4021
Compare	-11.4035
同	-11.4086
发	-11.4088
uipanel	-11.409
▁renowned	-11.409
▁файл	-11.409
█	-11.409
kortti	-11.409
▁twice	-11.409
Relative	-11.4091
Shadow	-11.4092
▁retreat	-11.4092
▁surreal	-11.4102
▁sipp	-11.4111
сходно	-11.4161
▁athletic	-11.4161
▁boolean	-11.4161
▁bouncing	-11.4161
▁eurospy	-11.4161
Accept	-11.4161
▁Arabic	-11.4161
leberry	-11.4161
▁UHD	-11.4161
▁momentarily	-11.4161
▁Romeo	-11.4161
▁Anything	-11.4161
▁swimming	-11.4161
▁Cross	-11.4162
▁stoic	-11.4171
floor	-11.4182
▁electro	-11.4216
▁pacif	-11.4224
ラ	-11.4228
▁disturb	-11.4232
▁maneuver	-11.4232
▁Government	-11.4232
▁acceleration	-11.4232
▁supplies	-11.4232
▁caution	-11.4232
▁Global	-11.4233
▁Naoto	-11.4233
▁addiction	-11.4233
kortit	-11.4233
▁лист	-11.4233
▁animated	-11.4233
▁implies	-11.4233
ться	-11.4233
▁upgrade	-11.4238
website	-11.4256
[4]	-11.4259
deliberately	-11.4304
nceforward	-11.4304
▁Catwoman	-11.4304
▁NEVER	-11.4304
▁Thomas	-11.4304
▁cylinder	-11.4304
Лист	-11.4304
▁Challenge	-11.4304
▁cycling	-11.4304
▁activation	-11.4304
▁snappy	-11.4304
▁kinks	-11.4304
▁agenda	-11.4305
▁Convert	-11.4305
▁journal	-11.4327
address	-11.4331
River	-11.4339
▁immediate	-11.4345
nmoral	-11.4372
性	-11.4375
▁Equipment	-11.4377
Gunlance	-11.4377
▁adequate	-11.4377
▁beneficial	-11.4377
▁criterion	-11.4377
▁patriarch	-11.4377
▁stylistic	-11.4377
▁unbearable	-11.4377
▁physics	-11.4377
uidelines	-11.4405
innerHTML	-11.445
√	-11.445
DisplayObject	-11.445
conWorldPosition	-11.445
▁familial	-11.445
▁quantitative	-11.445
▁registration	-11.445
▁supervisor	-11.445
▁undeniable	-11.445
▁unyielding	-11.445
▁elegance	-11.445
▁academy	-11.445
Widget	-11.4451
Annual	-11.4451
efficient	-11.4473
Layer	-11.4477
▁approximate	-11.4491
电	-11.4519
Evaluate	-11.4523
▁PLEASE	-11.4523
▁celebrities	-11.4523
▁galore	-11.4523
▁neighborhood	-11.4523
▁puppet	-11.4523
▁sinkhole	-11.4523
▁Airlines	-11.4523
▁agility	-11.4523
▁Enhance	-11.4523
▁disclaimer	-11.4523
pelaaja	-11.4523
▁Blender	-11.4523
『]|(|:─║	-11.4523
▁clinical	-11.4524
document	-11.4558
情	-11.459
度	-11.4595
ologist	-11.4596
噪	-11.4596
式	-11.4597
▁Taylor	-11.4597
▁comprehend	-11.4597
▁insatiable	-11.4597
▁nutrition	-11.4597
▁portfolio	-11.4597
▁Scott	-11.4597
▁athlete	-11.4598
▁Captain	-11.4598
▁combining	-11.4598
▁shook	-11.4598
Packet	-11.4598
except	-11.4635
culture	-11.4639
▁гистограмм	-11.467
者	-11.4671
声	-11.4671
包	-11.4672
ViewHolder	-11.4672
▁Pizzelle	-11.4672
▁accommodate	-11.4672
▁accompanie	-11.4672
▁fingertips	-11.4672
▁gorgeous	-11.4672
▁функци	-11.4672
▁wield	-11.4672
▁hallway	-11.4672
▁plastic	-11.4672
ξ	-11.4672
▁merciless	-11.4747
▁orthopedic	-11.4747
▁approval	-11.4747
恶意软件	-11.4747
▁grabbed	-11.4747
▁choosing	-11.4747
▁accessories	-11.4747
Socket	-11.4748
▁orientation	-11.4748
Version	-11.4751
Remaining	-11.4752
otherapy	-11.4764
▁decorat	-11.4789
Nigerian	-11.479
▁hydro	-11.4796
等	-11.482
常	-11.4821
所	-11.4822
VisualStyle	-11.4823
▁Technical	-11.4823
▁capturing	-11.4823
▁destiny	-11.4823
▁galaxy	-11.4823
▁snippet	-11.4823
▁компонент	-11.4823
tegrating	-11.4823
گ	-11.4823
▁compatible	-11.4823
▁desirable	-11.4823
Success	-11.4823
▁Kevin	-11.4823
▁complement	-11.4823
▁был	-11.4823
▁mythical	-11.4823
transcript	-11.4823
ŋ	-11.4823
Period	-11.4823
▁budd	-11.4824
Family	-11.4825
article	-11.4837
{2}	-11.4838
▁organize	-11.4841
▁requir	-11.4867
course	-11.4867
Directory	-11.4899
ê	-11.4899
▁corridor	-11.4899
▁terrifying	-11.4899
▁Revolution	-11.4899
▁hundred	-11.4899
▁powder	-11.4899
▁optimizing	-11.4899
▁Twain	-11.49
▁Monday	-11.49
activity	-11.4953
或	-11.4974
码	-11.4976
royalty	-11.4976
▁equivalent	-11.4976
▁espionage	-11.4976
▁psychedelic	-11.4976
Shutdown	-11.4976
▁Scarlet	-11.4976
▁crawl	-11.4976
▁proposal	-11.4976
▁Browse	-11.4977
sprite	-11.4978
请	-11.5053
▁Electric	-11.5054
▁butterflies	-11.5054
▁celestial	-11.5054
▁magnificent	-11.5054
▁navigating	-11.5054
▁oppressive	-11.5054
▁simplify	-11.5054
▁taught	-11.5054
▁unsettling	-11.5054
▁entwined	-11.5054
Estimated	-11.5054
您	-11.5054
▁flood	-11.5054
▁Margot	-11.5054
▁Women	-11.5054
▁gulp	-11.5055
accuracy	-11.5109
Mohammad	-11.5132
▁Foucault	-11.5132
▁Twitter	-11.5132
▁tropical	-11.5132
▁Explanation	-11.5132
▁Eventually	-11.5132
▁permanent	-11.5132
▁visibility	-11.5132
Offset	-11.5132
▁Pierre	-11.5132
▁organic	-11.5133
▁amplitude	-11.5211
▁brilliant	-11.5211
▁producing	-11.5211
▁autumn	-11.5211
▁underneath	-11.5211
▁malware	-11.5211
Basket	-11.5211
▁deserve	-11.522
discord	-11.5225
コメント	-11.528
γ	-11.529
ί	-11.529
KAKAROT	-11.529
subscribe	-11.529
ычисляе	-11.529
▁Ghidorah	-11.529
▁emerald	-11.529
đ	-11.529
▁Expect	-11.529
▁domestic	-11.529
▁effortlessly	-11.529
▁assassin	-11.529
▁conquest	-11.529
Generic	-11.529
▁wedding	-11.529
Straight	-11.529
▁Think	-11.5291
Board	-11.5335
き	-11.5355
接	-11.5367
最	-11.5368
ْ	-11.537
‡	-11.537
翻	-11.537
▁unfortunate	-11.537
▁Council	-11.537
▁Michael	-11.537
▁juxtaposition	-11.537
▁participating	-11.537
▁qualities	-11.537
▁Prophet	-11.537
ƛ	-11.537
▁maximize	-11.537
▁sentiment	-11.537
▁chronic	-11.537
▁footsteps	-11.537
▁Silver	-11.537
Observ	-11.5371
Package	-11.5372
Niccolo	-11.5438
⁄	-11.545
▁neglect	-11.5451
▁Medusa	-11.5451
▁Technology	-11.5451
▁adversity	-11.5451
▁paralyzed	-11.5451
▁profanity	-11.5451
▁synchron	-11.5451
▁convenient	-11.5451
▁feminine	-11.5451
Bottom	-11.5451
▁psyche	-11.5451
▁refresh	-11.5451
▁picturesque	-11.5451
▁pelvi	-11.5451
♥	-11.5451
Direction	-11.5451
ス	-11.5523
内	-11.5529
结	-11.553
击	-11.5532
Absolutely	-11.5532
NonNull	-11.5532
▁adventurous	-11.5532
▁commercial	-11.5532
▁deceptive	-11.5532
▁fascinated	-11.5532
▁phenomenon	-11.5532
▁purchasing	-11.5532
▁sufficient	-11.5532
▁territories	-11.5532
▁peacebuilding	-11.5532
▁Angular	-11.5532
▁clarity	-11.5532
▁bulge	-11.5532
emoji	-11.5532
组	-11.5613
Employ	-11.5614
Society	-11.5614
▁AVERROR	-11.5614
▁convenience	-11.5614
▁delegation	-11.5614
▁goddess	-11.5614
▁hypothesis	-11.5614
▁stretches	-11.5614
Φ	-11.5614
▁cuddl	-11.5614
▁cartItems	-11.5614
▁distress	-11.5614
▁Assignment	-11.5614
▁eccentric	-11.5614
▁scenic	-11.5614
▁horse	-11.5615
Specific	-11.5619
YOUR	-11.563
electron	-11.5644
处	-11.5695
主	-11.5696
─	-11.5697
▁buzz	-11.5697
编	-11.578
存	-11.5861
高	-11.5862
体	-11.5863
ς	-11.5864
	-11.5864
选	-11.5947
事	-11.6031
会	-11.6033
ğ	-11.6034
具	-11.612
ク	-11.6287
网	-11.6292
改	-11.6294
服	-11.6294
ć	-11.6295
ì	-11.6295
́	-11.6295
名	-11.6381
问	-11.6383
获	-11.6472
أ	-11.6473
»	-11.6473
¤	-11.6474
关	-11.656
例	-11.6561
	-11.6563
¥	-11.665
题	-11.6653
语	-11.6653
全	-11.6653
新	-11.6653
段	-11.6653
ط	-11.6654
确	-11.6744
ž	-11.6746
软	-11.6746
ố	-11.6746
投	-11.6829
特	-11.6833
小	-11.6836
多	-11.693
ิ	-11.7026
ロ	-11.7114
こ	-11.7116
视	-11.7119
被	-11.712
建	-11.712
意	-11.712
č	-11.7121
控	-11.7213
配	-11.7217
点	-11.7312
前	-11.7312
回	-11.7313
力	-11.7314
ị	-11.7314
«	-11.7314
模	-11.7409
线	-11.741
些	-11.741
工	-11.7412
安	-11.7412
Ч	-11.7412
ő	-11.7413
相	-11.7509
路	-11.751
∇	-11.751
供	-11.751
密	-11.7611
ר	-11.7612
他	-11.771
调	-11.7711
ร	-11.7712
画	-11.7912
›	-11.7916
î	-11.7917
ћ	-11.7918
ŷ	-11.7918
因	-11.8019
	-11.8022
๏	-11.8022
対	-11.8114
品	-11.8125
明	-11.8126
装	-11.8127
Ø	-11.8127
Á	-11.8127
이	-11.8127
公	-11.8233
ⱶ	-11.8233
铁	-11.8233
ֻ	-11.8234
గ	-11.8234
♣	-11.8235
ƥ	-11.8339
任	-11.8341
ω	-11.8341
ஸ	-11.8341
ƃ	-11.8341
リ	-11.8436
流	-11.8447
注	-11.8449
ื	-11.8449
ӆ	-11.845
ਮ	-11.845
튝	-11.845
Л	-11.845
め	-11.845
Ⱶ	-11.845
∆	-11.845
种	-11.8555
受	-11.8558
格	-11.8559
Ž	-11.8559
₱	-11.8559
Æ	-11.8559
̈	-11.856
ັ	-11.856
Я	-11.8671
法	-11.8782
雪	-11.8783
型	-11.8895
序	-11.9011
查	-11.9011
â	-11.9012
基	-11.9124
项	-11.9127
エ	-11.9127
么	-11.9128
系	-11.9243
每	-11.9244
则	-11.9245
実	-11.9352
之	-11.936
此	-11.9362
記	-11.9365
Ë	-11.9365
利	-11.9483
导	-11.9602
容	-11.9605
♧	-11.9606
部	-11.9727
率	-11.9728
频	-11.973
Σ	-11.973
ẞ	-11.973
ǐ	-11.9731
英	-11.9731
♠	-11.9731
日	-11.9846
学	-11.9852
や	-11.9852
然	-11.9853
ĝ	-11.9855
状	-11.9978
否	-11.998
构	-11.9981
集	-11.9981
ů	-11.9982
्	-11.9982
ĥ	-11.9982
从	-12.0107
换	-12.0109
重	-12.0109
म	-12.011
ү	-12.011
ى	-12.011
	-12.011
ẅ	-12.011
품	-12.011
報	-12.023
っ	-12.0233
传	-12.0238
方	-12.0238
ʫ	-12.024
ң	-12.024
ɲ	-12.024
せ	-12.0241
稿	-12.0358
♩	-12.0369
位	-12.037
国	-12.0371
写	-12.0371
研	-12.0501
持	-12.0502
色	-12.0503
步	-12.0505
ア	-12.0635
样	-12.0636
Ý	-12.0637
着	-12.0638
当	-12.0638
变	-12.0638
始	-12.064
テ	-12.0766
家	-12.0776
指	-12.0776
台	-12.0777
头	-12.0777
Е	-12.0777
ъ	-12.0777
ル	-12.0777
タ	-12.0911
含	-12.0916
¿	-12.0916
ά	-12.0916
′	-12.0916
好	-12.1055
错	-12.1056
あ	-12.1195
究	-12.1195
外	-12.1197
保	-12.1197
ý	-12.1198
经	-12.1198
态	-12.1198
心	-12.1199
次	-12.1199
ř	-12.12
Β	-12.12
♦	-12.1201
析	-12.1341
收	-12.1344
Б	-12.1345
ض	-12.1345
Î	-12.1345
Þ	-12.1345
第	-12.1489
它	-12.149
库	-12.1491
ò	-12.1492
别	-12.1636
产	-12.1637
り	-12.1638
物	-12.1639
试	-12.1641
元	-12.1785
う	-12.1787
测	-12.1789
单	-12.179
区	-12.179
户	-12.1792
片	-12.1792
ǎ	-12.1793
پ	-12.1793
▶	-12.1793
╗	-12.1793
プ	-12.1794
ブ	-12.1938
食	-12.1942
而	-12.1943
引	-12.1944
境	-12.1944
求	-12.1945
异	-12.1946
运	-12.1946
林	-12.1946
み	-12.1947
ん	-12.1947
象	-12.2097
使	-12.2101
放	-12.2102
∠	-12.2103
窃	-12.2103
š	-12.2103
年	-12.2261
释	-12.2261
由	-12.242
根	-12.2421
═	-12.2421
展	-12.2421
平	-12.2421
整	-12.2422
司	-12.2422
≤	-12.2422
毒	-12.2422
病	-12.2423
Ф	-12.2423
付	-12.2576
业	-12.2583
都	-12.2584
级	-12.2585
里	-12.2585
误	-12.2585
ϋ	-12.2587
フ	-12.2745
及	-12.2752
助	-12.2752
支	-12.2752
ÿ	-12.2753
ū	-12.2753
效	-12.292
转	-12.292
Ħ	-12.2921
İ	-12.2923
技	-12.3094
感	-12.3094
≥	-12.3095
É	-12.3095
政	-12.3095
远	-12.3267
据	-12.3268
直	-12.3269
已	-12.3269
验	-12.3269
节	-12.327
ペ	-12.3428
比	-12.3446
信	-12.3446
条	-12.3447
除	-12.3448
创	-12.3449
句	-12.3449
给	-12.3449
┼	-12.3449
Í	-12.3449
ذ	-12.3449
ِ	-12.3449
의	-12.3449
Λ	-12.3449
ј	-12.3449
角	-12.3629
准	-12.3629
ן	-12.3632
三	-12.3815
无	-12.3816
帮	-12.3816
Ω	-12.3816
ș	-12.3816
چ	-12.3816
آ	-12.3816
害	-12.3816
Ŧ	-12.3816
术	-12.4004
إ	-12.4005
ƨ	-12.4005
動	-12.419
ŕ	-12.4195
ĸ	-12.4196
消	-12.4196
括	-12.4196
데	-12.4197
⟧	-12.4197
ף	-12.4197
环	-12.4391
ŵ	-12.4392
„	-12.4392
原	-12.4392
先	-12.4392
ù	-12.4393
≼	-12.4393
터	-12.4393
ň	-12.4393
べ	-12.4581
ド	-12.4588
串	-12.4591
际	-12.4592
块	-12.4593
天	-12.4593
ψ	-12.4593
ƿ	-12.4593
╬	-12.4593
╪	-12.4594
限	-12.4789
备	-12.4793
メ	-12.4795
但	-12.4796
Ϭ	-12.4796
Ϯ	-12.4796
命	-12.4796
索	-12.4797
Ѯ	-12.4797
军	-12.4797
화	-12.4797
ȡ	-12.4797
そ	-12.4995
载	-12.5
估	-12.5002
期	-12.5003
ˇ	-12.5003
ジ	-12.5003
看	-12.5004
没	-12.5004
客	-12.5005
ϫ	-12.5005
商	-12.5006
غ	-12.5006
	-12.5006
ß	-12.5006
Ⱥ	-12.5216
功	-12.5216
Ɔ	-12.5217
令	-12.5217
➪	-12.5217
述	-12.5217
⟩	-12.5217
Ϫ	-12.5218
ϭ	-12.5218
ϯ	-12.5218
打	-12.5218
完	-12.5218
衣	-12.5218
帧	-12.5218
╟	-12.5218
і	-12.5218
识	-12.5431
素	-12.5432
ṙ	-12.5433
源	-12.5433
符	-12.5435
言	-12.5435
手	-12.5435
հ	-12.5435
ϻ	-12.5436
向	-12.5656
返	-12.5656
管	-12.5657
市	-12.5658
	-12.5658
	-12.5658
车	-12.5658
為	-12.5658
も	-12.5658
お	-12.5877
♫	-12.5882
启	-12.5883
预	-12.5883
変	-12.5883
还	-12.5884
送	-12.5884
設	-12.5885
费	-12.5885
Ц	-12.5885
连	-12.6112
号	-12.6115
止	-12.6117
活	-12.6117
造	-12.6117
έ	-12.6118
治	-12.6118
即	-12.6352
致	-12.6352
论	-12.6353
达	-12.6355
金	-12.6355
门	-12.6355
デ	-12.6356
∞	-12.6356
专	-12.6356
약	-12.6356
版	-12.6356
ず	-12.6358
セ	-12.6586
决	-12.6596
想	-12.6597
义	-12.6598
替	-12.6599
ń	-12.66
ウ	-12.6835
く	-12.6849
黑	-12.6849
χ	-12.685
©	-12.685
ッ	-12.7107
进	-12.7366
必	-12.8798
シ	-12.88
よ	-12.9113
代	-13.0469
グ	-13.1226
马	-13.2042
コ	-13.2473
だ	-13.3407
需	-13.3906
木	-13.3907
発	-13.6201
Θ	-13.6203
レ	-13.687
¦	-13.7584
ツ	-13.8346
恶	-13.9186
カ	-13.9187
息	-14.1092
ĉ	-14.3457
₮	-14.4885
₭	-14.4885
ね	-14.8517
Ϧ	-15.9385
❤	-16.934
择	-16.9341
	-16.9342
	-16.9343
వ	-16.9344
ҡ	-16.9345
ϩ	-16.9346
Ϩ	-16.9347
ϥ	-16.9348
Ϣ	-16.9349
何	-16.935
Ϻ	-16.9351
ϸ	-16.9352
϶	-16.9353
ϳ	-16.9354
	-16.9355
̆	-16.9356
谍	-16.9357
ォ	-16.9358
場	-16.9359
添	-16.936
访	-16.9361
执	-16.9362
什	-16.9363
柏	-16.9364
织	-16.9365
ィ	-16.9366
络	-16.9367
ユ	-16.9368
操	-16.9369
‍	-16.937
乃	-16.9371
ザ	-16.9372
∥	-16.9373
య	-16.9374
ョ	-16.9375
译	-16.9376
攻	-16.9377
函	-16.9378
统	-16.9379
శ	-16.938
们	-16.9381
『	-16.9382
⇨	-16.9382
	-16.9383
★	-16.9384
"	-16.9385
ϣ	-16.9385
Ϥ	-16.9385
ϧ	-16.9385
Ϸ	-16.9385
